{
  "version": "1.0",
  "truncation": null,
  "padding": null,
  "added_tokens": [
    {
      "id": 0,
      "content": "[UNK]",
      "single_word": false,
      "lstrip": false,
      "rstrip": false,
      "normalized": false,
      "special": true
    },
    {
      "id": 1,
      "content": "[PAD]",
      "single_word": false,
      "lstrip": false,
      "rstrip": false,
      "normalized": false,
      "special": true
    },
    {
      "id": 2,
      "content": "[CLS]",
      "single_word": false,
      "lstrip": false,
      "rstrip": false,
      "normalized": false,
      "special": true
    },
    {
      "id": 3,
      "content": "[SEP]",
      "single_word": false,
      "lstrip": false,
      "rstrip": false,
      "normalized": false,
      "special": true
    }
  ],
  "normalizer": {
    "type": "NFC"
  },
  "pre_tokenizer": {
    "type": "Sequence",
    "pretokenizers": [
      {
        "type": "Whitespace"
      },
      {
        "type": "Punctuation",
        "behavior": "Isolated"
      }
    ]
  },
  "post_processor": null,
  "decoder": null,
  "model": {
    "type": "BPE",
    "dropout": null,
    "unk_token": "[UNK]",
    "continuing_subword_prefix": null,
    "end_of_word_suffix": null,
    "fuse_unk": false,
    "byte_fallback": false,
    "ignore_merges": false,
    "vocab": {
      "[UNK]": 0,
      "[PAD]": 1,
      "[CLS]": 2,
      "[SEP]": 3,
      "!": 4,
      "\"": 5,
      "#": 6,
      "%": 7,
      "'": 8,
      "(": 9,
      ")": 10,
      "*": 11,
      ",": 12,
      "-": 13,
      ".": 14,
      "/": 15,
      "0": 16,
      "1": 17,
      "2": 18,
      "3": 19,
      "4": 20,
      "5": 21,
      "6": 22,
      "7": 23,
      "8": 24,
      "9": 25,
      ":": 26,
      ";": 27,
      "<": 28,
      "=": 29,
      ">": 30,
      "?": 31,
      "@": 32,
      "A": 33,
      "B": 34,
      "C": 35,
      "D": 36,
      "E": 37,
      "F": 38,
      "G": 39,
      "H": 40,
      "I": 41,
      "J": 42,
      "K": 43,
      "L": 44,
      "M": 45,
      "N": 46,
      "O": 47,
      "P": 48,
      "Q": 49,
      "R": 50,
      "S": 51,
      "T": 52,
      "U": 53,
      "V": 54,
      "W": 55,
      "X": 56,
      "Y": 57,
      "Z": 58,
      "[": 59,
      "\\": 60,
      "]": 61,
      "^": 62,
      "_": 63,
      "`": 64,
      "a": 65,
      "b": 66,
      "c": 67,
      "d": 68,
      "e": 69,
      "f": 70,
      "g": 71,
      "h": 72,
      "i": 73,
      "j": 74,
      "k": 75,
      "l": 76,
      "m": 77,
      "n": 78,
      "o": 79,
      "p": 80,
      "q": 81,
      "r": 82,
      "s": 83,
      "t": 84,
      "u": 85,
      "v": 86,
      "w": 87,
      "x": 88,
      "y": 89,
      "z": 90,
      "{": 91,
      "|": 92,
      "}": 93,
      "~": 94,
      "": 95,
      "¡": 96,
      "¢": 97,
      "¤": 98,
      "¥": 99,
      "¦": 100,
      "¨": 101,
      "¬": 102,
      "­": 103,
      "®": 104,
      "¯": 105,
      "°": 106,
      "²": 107,
      "¶": 108,
      "·": 109,
      "¸": 110,
      "¹": 111,
      "¼": 112,
      "½": 113,
      "¾": 114,
      "¿": 115,
      "Á": 116,
      "Â": 117,
      "Ã": 118,
      "Å": 119,
      "Ç": 120,
      "É": 121,
      "Ë": 122,
      "Î": 123,
      "Ó": 124,
      "Ö": 125,
      "×": 126,
      "Ø": 127,
      "á": 128,
      "â": 129,
      "ä": 130,
      "å": 131,
      "æ": 132,
      "ç": 133,
      "é": 134,
      "ì": 135,
      "í": 136,
      "ð": 137,
      "ñ": 138,
      "ó": 139,
      "ö": 140,
      "ú": 141,
      "ü": 142,
      "ā": 143,
      "ć": 144,
      "č": 145,
      "Ď": 146,
      "ę": 147,
      "ě": 148,
      "ğ": 149,
      "ī": 150,
      "ł": 151,
      "ŋ": 152,
      "ō": 153,
      "ř": 154,
      "Ś": 155,
      "ś": 156,
      "Ŝ": 157,
      "ŝ": 158,
      "š": 159,
      "ź": 160,
      "ż": 161,
      "ǎ": 162,
      "ǒ": 163,
      "ɐ": 164,
      "ɑ": 165,
      "ɒ": 166,
      "ɔ": 167,
      "ə": 168,
      "ɛ": 169,
      "ɜ": 170,
      "ɡ": 171,
      "ɥ": 172,
      "ɦ": 173,
      "ɨ": 174,
      "ɪ": 175,
      "ɲ": 176,
      "ɹ": 177,
      "ɾ": 178,
      "ʁ": 179,
      "ʃ": 180,
      "ʊ": 181,
      "ʌ": 182,
      "ʒ": 183,
      "ʰ": 184,
      "ʲ": 185,
      "ˈ": 186,
      "ˌ": 187,
      "ː": 188,
      "˜": 189,
      "́": 190,
      "̩": 191,
      "͂": 192,
      "Ά": 193,
      "Α": 194,
      "Γ": 195,
      "Θ": 196,
      "Κ": 197,
      "Μ": 198,
      "Τ": 199,
      "Φ": 200,
      "Ω": 201,
      "ά": 202,
      "ή": 203,
      "ί": 204,
      "α": 205,
      "γ": 206,
      "δ": 207,
      "ε": 208,
      "η": 209,
      "θ": 210,
      "ι": 211,
      "κ": 212,
      "λ": 213,
      "μ": 214,
      "ν": 215,
      "ξ": 216,
      "ο": 217,
      "π": 218,
      "ρ": 219,
      "ς": 220,
      "σ": 221,
      "τ": 222,
      "φ": 223,
      "χ": 224,
      "ω": 225,
      "ό": 226,
      "ύ": 227,
      "ώ": 228,
      "А": 229,
      "Б": 230,
      "В": 231,
      "Г": 232,
      "Д": 233,
      "Е": 234,
      "Ж": 235,
      "И": 236,
      "К": 237,
      "М": 238,
      "Н": 239,
      "О": 240,
      "П": 241,
      "Р": 242,
      "С": 243,
      "У": 244,
      "Ф": 245,
      "Х": 246,
      "Ш": 247,
      "Э": 248,
      "а": 249,
      "б": 250,
      "в": 251,
      "г": 252,
      "д": 253,
      "е": 254,
      "ж": 255,
      "з": 256,
      "и": 257,
      "й": 258,
      "к": 259,
      "л": 260,
      "м": 261,
      "н": 262,
      "о": 263,
      "п": 264,
      "р": 265,
      "с": 266,
      "т": 267,
      "у": 268,
      "х": 269,
      "ц": 270,
      "ч": 271,
      "ш": 272,
      "ы": 273,
      "ь": 274,
      "э": 275,
      "я": 276,
      "ё": 277,
      "і": 278,
      "ї": 279,
      "Қ": 280,
      "қ": 281,
      "ұ": 282,
      "ә": 283,
      "Ա": 284,
      "Գ": 285,
      "Լ": 286,
      "ա": 287,
      "գ": 288,
      "ի": 289,
      "յ": 290,
      "ն": 291,
      "ո": 292,
      "ր": 293,
      "և": 294,
      "ְ": 295,
      "ִ": 296,
      "ַ": 297,
      "ָ": 298,
      "ּ": 299,
      "א": 300,
      "ב": 301,
      "ג": 302,
      "ד": 303,
      "ה": 304,
      "ו": 305,
      "ז": 306,
      "ח": 307,
      "ט": 308,
      "י": 309,
      "כ": 310,
      "ל": 311,
      "ם": 312,
      "מ": 313,
      "ן": 314,
      "נ": 315,
      "ס": 316,
      "ע": 317,
      "פ": 318,
      "צ": 319,
      "ק": 320,
      "ר": 321,
      "ש": 322,
      "ת": 323,
      "ء": 324,
      "آ": 325,
      "أ": 326,
      "إ": 327,
      "ئ": 328,
      "ا": 329,
      "ب": 330,
      "ة": 331,
      "ت": 332,
      "ج": 333,
      "ح": 334,
      "خ": 335,
      "د": 336,
      "ذ": 337,
      "ر": 338,
      "ز": 339,
      "س": 340,
      "ش": 341,
      "ص": 342,
      "ض": 343,
      "ط": 344,
      "ظ": 345,
      "ع": 346,
      "غ": 347,
      "ف": 348,
      "ق": 349,
      "ك": 350,
      "ل": 351,
      "م": 352,
      "ن": 353,
      "ه": 354,
      "و": 355,
      "ى": 356,
      "ي": 357,
      "ُ": 358,
      "ِ": 359,
      "ّ": 360,
      "ٰ": 361,
      "ٹ": 362,
      "پ": 363,
      "چ": 364,
      "ڑ": 365,
      "ژ": 366,
      "ک": 367,
      "گ": 368,
      "ں": 369,
      "ھ": 370,
      "ہ": 371,
      "ی": 372,
      "ۍ": 373,
      "۔": 374,
      "ँ": 375,
      "ं": 376,
      "ः": 377,
      "अ": 378,
      "आ": 379,
      "इ": 380,
      "ई": 381,
      "उ": 382,
      "ऊ": 383,
      "ऋ": 384,
      "ऍ": 385,
      "ऎ": 386,
      "ए": 387,
      "ऐ": 388,
      "ऑ": 389,
      "ऒ": 390,
      "ओ": 391,
      "औ": 392,
      "क": 393,
      "ख": 394,
      "ग": 395,
      "घ": 396,
      "ङ": 397,
      "च": 398,
      "छ": 399,
      "ज": 400,
      "झ": 401,
      "ञ": 402,
      "ट": 403,
      "ठ": 404,
      "ड": 405,
      "ढ": 406,
      "ण": 407,
      "त": 408,
      "थ": 409,
      "द": 410,
      "ध": 411,
      "न": 412,
      "ऩ": 413,
      "प": 414,
      "फ": 415,
      "ब": 416,
      "भ": 417,
      "म": 418,
      "य": 419,
      "र": 420,
      "ऱ": 421,
      "ल": 422,
      "ळ": 423,
      "ऴ": 424,
      "व": 425,
      "श": 426,
      "ष": 427,
      "स": 428,
      "ह": 429,
      "़": 430,
      "ा": 431,
      "ि": 432,
      "ी": 433,
      "ु": 434,
      "ू": 435,
      "ृ": 436,
      "ॄ": 437,
      "ॅ": 438,
      "ॆ": 439,
      "े": 440,
      "ै": 441,
      "ॉ": 442,
      "ॊ": 443,
      "ो": 444,
      "ौ": 445,
      "्": 446,
      "ॐ": 447,
      "॑": 448,
      "ॠ": 449,
      "।": 450,
      "॥": 451,
      "०": 452,
      "१": 453,
      "२": 454,
      "३": 455,
      "४": 456,
      "५": 457,
      "६": 458,
      "७": 459,
      "८": 460,
      "९": 461,
      "॰": 462,
      "ং": 463,
      "অ": 464,
      "আ": 465,
      "ই": 466,
      "উ": 467,
      "এ": 468,
      "ক": 469,
      "খ": 470,
      "গ": 471,
      "ঙ": 472,
      "চ": 473,
      "জ": 474,
      "ট": 475,
      "ড": 476,
      "ণ": 477,
      "ত": 478,
      "দ": 479,
      "ধ": 480,
      "ন": 481,
      "প": 482,
      "ব": 483,
      "ভ": 484,
      "ম": 485,
      "য": 486,
      "র": 487,
      "ল": 488,
      "শ": 489,
      "ষ": 490,
      "স": 491,
      "হ": 492,
      "়": 493,
      "া": 494,
      "ি": 495,
      "ী": 496,
      "ু": 497,
      "ূ": 498,
      "ৃ": 499,
      "ে": 500,
      "ৈ": 501,
      "ো": 502,
      "্": 503,
      "ৎ": 504,
      "ਅ": 505,
      "ਕ": 506,
      "ਗ": 507,
      "ਘ": 508,
      "ਚ": 509,
      "ਜ": 510,
      "ਤ": 511,
      "ਦ": 512,
      "ਧ": 513,
      "ਨ": 514,
      "ਪ": 515,
      "ਮ": 516,
      "ਰ": 517,
      "ਲ": 518,
      "ਵ": 519,
      "ਸ": 520,
      "ਹ": 521,
      "ਾ": 522,
      "ਿ": 523,
      "ੀ": 524,
      "ੁ": 525,
      "ੂ": 526,
      "ੇ": 527,
      "੍": 528,
      "ੰ": 529,
      "ੱ": 530,
      "ં": 531,
      "ખ": 532,
      "ગ": 533,
      "જ": 534,
      "ઝ": 535,
      "ડ": 536,
      "ણ": 537,
      "ત": 538,
      "દ": 539,
      "ધ": 540,
      "ન": 541,
      "બ": 542,
      "ભ": 543,
      "મ": 544,
      "ય": 545,
      "ર": 546,
      "લ": 547,
      "શ": 548,
      "સ": 549,
      "હ": 550,
      "ા": 551,
      "િ": 552,
      "ી": 553,
      "ુ": 554,
      "ો": 555,
      "କ": 556,
      "ଚ": 557,
      "ଣ": 558,
      "ତ": 559,
      "ଦ": 560,
      "ଧ": 561,
      "ନ": 562,
      "ବ": 563,
      "ଯ": 564,
      "ର": 565,
      "ଷ": 566,
      "ସ": 567,
      "ା": 568,
      "ୀ": 569,
      "ୁ": 570,
      "ୃ": 571,
      "ୌ": 572,
      "୍": 573,
      "ஆ": 574,
      "இ": 575,
      "ஐ": 576,
      "ஓ": 577,
      "க": 578,
      "ங": 579,
      "ச": 580,
      "ஜ": 581,
      "ட": 582,
      "ண": 583,
      "த": 584,
      "ந": 585,
      "ன": 586,
      "ப": 587,
      "ம": 588,
      "ய": 589,
      "ர": 590,
      "ற": 591,
      "ல": 592,
      "ள": 593,
      "ழ": 594,
      "வ": 595,
      "ஷ": 596,
      "ஸ": 597,
      "ா": 598,
      "ி": 599,
      "ீ": 600,
      "ு": 601,
      "ூ": 602,
      "ெ": 603,
      "ே": 604,
      "ை": 605,
      "்": 606,
      "ం": 607,
      "అ": 608,
      "ఆ": 609,
      "ఉ": 610,
      "క": 611,
      "ఖ": 612,
      "గ": 613,
      "చ": 614,
      "జ": 615,
      "ట": 616,
      "డ": 617,
      "ణ": 618,
      "త": 619,
      "థ": 620,
      "ద": 621,
      "ధ": 622,
      "న": 623,
      "ప": 624,
      "ఫ": 625,
      "బ": 626,
      "మ": 627,
      "య": 628,
      "ర": 629,
      "ల": 630,
      "వ": 631,
      "శ": 632,
      "స": 633,
      "హ": 634,
      "ా": 635,
      "ి": 636,
      "ీ": 637,
      "ు": 638,
      "ూ": 639,
      "ే": 640,
      "ొ": 641,
      "్": 642,
      "ಂ": 643,
      "ಆ": 644,
      "ಕ": 645,
      "ಗ": 646,
      "ಚ": 647,
      "ಜ": 648,
      "ಟ": 649,
      "ಡ": 650,
      "ಣ": 651,
      "ತ": 652,
      "ದ": 653,
      "ಧ": 654,
      "ನ": 655,
      "ಪ": 656,
      "ಬ": 657,
      "ಮ": 658,
      "ಯ": 659,
      "ರ": 660,
      "ಲ": 661,
      "ಳ": 662,
      "ವ": 663,
      "ಶ": 664,
      "ಷ": 665,
      "ಸ": 666,
      "ಹ": 667,
      "ಾ": 668,
      "ಿ": 669,
      "ೀ": 670,
      "ು": 671,
      "ೂ": 672,
      "ೆ": 673,
      "್": 674,
      "ം": 675,
      "അ": 676,
      "ഉ": 677,
      "എ": 678,
      "ഒ": 679,
      "ക": 680,
      "ജ": 681,
      "ട": 682,
      "ത": 683,
      "ദ": 684,
      "ന": 685,
      "പ": 686,
      "ഫ": 687,
      "ബ": 688,
      "മ": 689,
      "യ": 690,
      "ര": 691,
      "ല": 692,
      "ള": 693,
      "ഴ": 694,
      "വ": 695,
      "ശ": 696,
      "സ": 697,
      "ാ": 698,
      "ി": 699,
      "ു": 700,
      "െ": 701,
      "േ": 702,
      "ൈ": 703,
      "ോ": 704,
      "്": 705,
      "ൻ": 706,
      "ග": 707,
      "බ": 708,
      "ම": 709,
      "ර": 710,
      "ව": 711,
      "ස": 712,
      "ු": 713,
      "ช": 714,
      "ณ": 715,
      "ด": 716,
      "ท": 717,
      "ธ": 718,
      "น": 719,
      "พ": 720,
      "ภ": 721,
      "ม": 722,
      "ย": 723,
      "ร": 724,
      "ล": 725,
      "ว": 726,
      "ษ": 727,
      "อ": 728,
      "า": 729,
      "ิ": 730,
      "ี": 731,
      "ื": 732,
      "ุ": 733,
      "ู": 734,
      "เ": 735,
      "ไ": 736,
      "่": 737,
      "ი": 738,
      "კ": 739,
      "ნ": 740,
      "ო": 741,
      "ậ": 742,
      "ỉ": 743,
      "ủ": 744,
      "Ἀ": 745,
      "​": 746,
      "‌": 747,
      "‍": 748,
      "‎": 749,
      "‏": 750,
      "–": 751,
      "—": 752,
      "‘": 753,
      "’": 754,
      "‚": 755,
      "“": 756,
      "”": 757,
      "†": 758,
      "•": 759,
      "…": 760,
      "€": 761,
      "↑": 762,
      "−": 763,
      "♐": 764,
      "ⴰ": 765,
      "ⵉ": 766,
      "ⵎ": 767,
      "ⵖ": 768,
      "ⵜ": 769,
      "ⵣ": 770,
      "の": 771,
      "イ": 772,
      "エ": 773,
      "オ": 774,
      "ク": 775,
      "ス": 776,
      "タ": 777,
      "ッ": 778,
      "テ": 779,
      "デ": 780,
      "ト": 781,
      "ド": 782,
      "ニ": 783,
      "ヒ": 784,
      "ビ": 785,
      "ブ": 786,
      "ベ": 787,
      "ペ": 788,
      "メ": 789,
      "ュ": 790,
      "ラ": 791,
      "リ": 792,
      "ル": 793,
      "ン": 794,
      "・": 795,
      "ー": 796,
      "一": 797,
      "七": 798,
      "世": 799,
      "中": 800,
      "主": 801,
      "京": 802,
      "人": 803,
      "克": 804,
      "党": 805,
      "共": 806,
      "内": 807,
      "利": 808,
      "区": 809,
      "华": 810,
      "原": 811,
      "口": 812,
      "古": 813,
      "和": 814,
      "国": 815,
      "國": 816,
      "在": 817,
      "地": 818,
      "坚": 819,
      "多": 820,
      "大": 821,
      "天": 822,
      "奥": 823,
      "学": 824,
      "宋": 825,
      "实": 826,
      "小": 827,
      "岗": 828,
      "崛": 829,
      "州": 830,
      "巴": 831,
      "市": 832,
      "帕": 833,
      "席": 834,
      "平": 835,
      "彪": 836,
      "後": 837,
      "得": 838,
      "心": 839,
      "必": 840,
      "恩": 841,
      "才": 842,
      "扎": 843,
      "拉": 844,
      "摩": 845,
      "日": 846,
      "显": 847,
      "晏": 848,
      "木": 849,
      "本": 850,
      "李": 851,
      "東": 852,
      "林": 853,
      "枚": 854,
      "校": 855,
      "格": 856,
      "森": 857,
      "業": 858,
      "楼": 859,
      "横": 860,
      "步": 861,
      "民": 862,
      "水": 863,
      "治": 864,
      "法": 865,
      "波": 866,
      "洱": 867,
      "流": 868,
      "浜": 869,
      "海": 870,
      "港": 871,
      "爾": 872,
      "特": 873,
      "玛": 874,
      "理": 875,
      "瓦": 876,
      "町": 877,
      "皇": 878,
      "盛": 879,
      "祖": 880,
      "種": 881,
      "穆": 882,
      "米": 883,
      "紀": 884,
      "紫": 885,
      "経": 886,
      "經": 887,
      "羅": 888,
      "羽": 889,
      "自": 890,
      "般": 891,
      "芳": 892,
      "若": 893,
      "英": 894,
      "華": 895,
      "蒙": 896,
      "蜜": 897,
      "行": 898,
      "袁": 899,
      "賓": 900,
      "起": 901,
      "逵": 902,
      "郎": 903,
      "郑": 904,
      "野": 905,
      "馬": 906,
      "鲁": 907,
      "鳥": 908,
      "鴻": 909,
      "黨": 910,
      "龙": 911,
      "그": 912,
      "내": 913,
      "널": 914,
      "래": 915,
      "리": 916,
      "셔": 917,
      "아": 918,
      "양": 919,
      "오": 920,
      "지": 921,
      "채": 922,
      "코": 923,
      "평": 924,
      "픽": 925,
      "）": 926,
      "，": 927,
      "�": 928,
      "के": 929,
      "है": 930,
      "ार": 931,
      "ें": 932,
      "्र": 933,
      "में": 934,
      "का": 935,
      "रा": 936,
      "ने": 937,
      "्त": 938,
      "या": 939,
      "र्": 940,
      "की": 941,
      "ों": 942,
      "एक": 943,
      "कि": 944,
      "ले": 945,
      "गा": 946,
      "ना": 947,
      "से": 948,
      "्य": 949,
      "को": 950,
      "स्": 951,
      "प्र": 952,
      "ता": 953,
      "ला": 954,
      "वा": 955,
      "मा": 956,
      "हा": 957,
      "कर": 958,
      "गाँ": 959,
      "गाँव": 960,
      "और": 961,
      "बा": 962,
      "्ड": 963,
      "भार": 964,
      "ही": 965,
      "भारत": 966,
      "राज": 967,
      "दे": 968,
      "जि": 969,
      "ण्ड": 970,
      "सी": 971,
      "हैं": 972,
      "न्": 973,
      "अन": 974,
      "ड़": 975,
      "नी": 976,
      "सा": 977,
      "ित": 978,
      "पर": 979,
      "ज़": 980,
      "फ़": 981,
      "लि": 982,
      "राज्य": 983,
      "ली": 984,
      "ल्": 985,
      "त्त": 986,
      "क्": 987,
      "वि": 988,
      "जा": 989,
      "गत": 990,
      "जिले": 991,
      "ुर": 992,
      "कार": 993,
      "नि": 994,
      "इस": 995,
      "अन्त": 996,
      "र्गत": 997,
      "स्थ": 998,
      "अन्तर्गत": 999,
      "भी": 1000,
      "देश": 1001,
      "उत्त": 1002,
      "पा": 1003,
      "दि": 1004,
      "हो": 1005,
      "मु": 1006,
      "हु": 1007,
      "ंग": 1008,
      "री": 1009,
      "मण्ड": 1010,
      "मण्डल": 1011,
      "ान": 1012,
      "त्र": 1013,
      "कु": 1014,
      "ते": 1015,
      "भा": 1016,
      "दी": 1017,
      "हीं": 1018,
      "क्ष": 1019,
      "लो": 1020,
      "स्थित": 1021,
      "ती": 1022,
      "हि": 1023,
      "ढ़": 1024,
      "ति": 1025,
      "मि": 1026,
      "सं": 1027,
      "बाद": 1028,
      "बि": 1029,
      "पुर": 1030,
      "था": 1031,
      "नहीं": 1032,
      "प्रदेश": 1033,
      "्ट": 1034,
      "खण्ड": 1035,
      "तह": 1036,
      "सि": 1037,
      "रह": 1038,
      "दा": 1039,
      "उत्तरा": 1040,
      "सील": 1041,
      "तहसील": 1042,
      "उत्तराखण्ड": 1043,
      "हार": 1044,
      "स्त": 1045,
      "लिए": 1046,
      "रि": 1047,
      "ल्म": 1048,
      "ख़": 1049,
      "हम": 1050,
      "गढ़": 1051,
      "यों": 1052,
      "्व": 1053,
      "सम": 1054,
      "बी": 1055,
      "उन": 1056,
      "क़": 1057,
      "कहा": 1058,
      "ंड": 1059,
      "तो": 1060,
      "सर": 1061,
      "अप": 1062,
      "बिहार": 1063,
      "मी": 1064,
      "मै": 1065,
      "टी": 1066,
      "चा": 1067,
      "शा": 1068,
      "ऊँ": 1069,
      "न्ह": 1070,
      "लोग": 1071,
      "किया": 1072,
      "कह": 1073,
      "िया": 1074,
      "गया": 1075,
      "मे": 1076,
      "्या": 1077,
      "कुमा": 1078,
      "ीय": 1079,
      "कुमाऊँ": 1080,
      "वे": 1081,
      "िल्म": 1082,
      "थी": 1083,
      "रो": 1084,
      "मं": 1085,
      "उत्तर": 1086,
      "पू": 1087,
      "चु": 1088,
      "उन्ह": 1089,
      "ये": 1090,
      "ंद": 1091,
      "रे": 1092,
      "जी": 1093,
      "ड़ी": 1094,
      "िक": 1095,
      "ष्ट": 1096,
      "वार": 1097,
      "पह": 1098,
      "पु": 1099,
      "ड़ा": 1100,
      "गे": 1101,
      "किन": 1102,
      "यह": 1103,
      "दो": 1104,
      "पि": 1105,
      "बार": 1106,
      "म्": 1107,
      "लेकिन": 1108,
      "्रे": 1109,
      "ंत": 1110,
      "थे": 1111,
      "स्ट": 1112,
      "रहे": 1113,
      "मान": 1114,
      "मो": 1115,
      "खा": 1116,
      "ध्र": 1117,
      "बे": 1118,
      "जो": 1119,
      "वी": 1120,
      "पार": 1121,
      "सु": 1122,
      "हर": 1123,
      "वाल": 1124,
      "हुए": 1125,
      "गी": 1126,
      "आन्": 1127,
      "मार": 1128,
      "आन्ध्र": 1129,
      "ियों": 1130,
      "आन्ध्रप्रदेश": 1131,
      "नों": 1132,
      "क्र": 1133,
      "ष्ट्र": 1134,
      "पी": 1135,
      "द्": 1136,
      "उस": 1137,
      "मंत्र": 1138,
      "साथ": 1139,
      "यो": 1140,
      "इन": 1141,
      "करने": 1142,
      "जन": 1143,
      "मिल": 1144,
      "सक": 1145,
      "ोंने": 1146,
      "सरकार": 1147,
      "रहा": 1148,
      "तक": 1149,
      "वो": 1150,
      "हिन्": 1151,
      "लोगों": 1152,
      "19": 1153,
      "टे": 1154,
      "णा": 1155,
      "मुख": 1156,
      "कहना": 1157,
      "अध": 1158,
      "गर": 1159,
      "कुछ": 1160,
      "हाँ": 1161,
      "षा": 1162,
      "अम": 1163,
      "हिन्दी": 1164,
      "दिया": 1165,
      "चि": 1166,
      "उन्होंने": 1167,
      "क्त": 1168,
      "क्षे": 1169,
      "टा": 1170,
      "राय": 1171,
      "बात": 1172,
      "राष्ट्र": 1173,
      "श्": 1174,
      "निक": 1175,
      "बना": 1176,
      "शि": 1177,
      "ारी": 1178,
      "पहले": 1179,
      "गए": 1180,
      "स्तान": 1181,
      "आप": 1182,
      "दू": 1183,
      "क्षेत्र": 1184,
      "जब": 1185,
      "ष्": 1186,
      "चुना": 1187,
      "श्व": 1188,
      "ओं": 1189,
      "मैं": 1190,
      "चार": 1191,
      "ची": 1192,
      "बर": 1193,
      "्री": 1194,
      "रही": 1195,
      "मंत्री": 1196,
      "गई": 1197,
      "ूल": 1198,
      "वर्": 1199,
      "च्": 1200,
      "भाषा": 1201,
      "त्": 1202,
      "डी": 1203,
      "ंध": 1204,
      "बनी": 1205,
      "फिल्म": 1206,
      "निर्": 1207,
      "िर": 1208,
      "पाकि": 1209,
      "कृ": 1210,
      "अपने": 1211,
      "गढ़वाल": 1212,
      "अमरी": 1213,
      "कर्": 1214,
      "चुनाव": 1215,
      "लों": 1216,
      "रू": 1217,
      "लग": 1218,
      "्टी": 1219,
      "ारा": 1220,
      "पौ": 1221,
      "20": 1222,
      "फ़िल्म": 1223,
      "डा": 1224,
      "कों": 1225,
      "दु": 1226,
      "सै": 1227,
      "भारतीय": 1228,
      "्रा": 1229,
      "लगा": 1230,
      "अब": 1231,
      "शन": 1232,
      "यु": 1233,
      "रु": 1234,
      "व्य": 1235,
      "सभा": 1236,
      "आई": 1237,
      "चे": 1238,
      "सब": 1239,
      "खे": 1240,
      "इला": 1241,
      "गढ": 1242,
      "लिया": 1243,
      "सू": 1244,
      "गो": 1245,
      "सो": 1246,
      "गु": 1247,
      "वाले": 1248,
      "ंग्रे": 1249,
      "पाकिस्तान": 1250,
      "जाए": 1251,
      "र्थ": 1252,
      "जिस": 1253,
      "लोक": 1254,
      "नेता": 1255,
      "ल्मो": 1256,
      "अल्मो": 1257,
      "धान": 1258,
      "नौ": 1259,
      "पार्टी": 1260,
      "कम": 1261,
      "टना": 1262,
      "ंगा": 1263,
      "कोई": 1264,
      "िला": 1265,
      "ँच": 1266,
      "हुआ": 1267,
      "ीस": 1268,
      "बै": 1269,
      "ड़े": 1270,
      "दर्": 1271,
      "बहु": 1272,
      "प्रति": 1273,
      "भि": 1274,
      "ताल": 1275,
      "स्था": 1276,
      "ग़": 1277,
      "ज़ी": 1278,
      "पे": 1279,
      "हुई": 1280,
      "टर": 1281,
      "मन": 1282,
      "काम": 1283,
      "पूर्": 1284,
      "कई": 1285,
      "बता": 1286,
      "पं": 1287,
      "दौ": 1288,
      "्यू": 1289,
      "मौ": 1290,
      "जै": 1291,
      "वर": 1292,
      "मत": 1293,
      "नै": 1294,
      "उनके": 1295,
      "सिं": 1296,
      "क्षा": 1297,
      "लं": 1298,
      "होने": 1299,
      "ब्": 1300,
      "यम": 1301,
      "यर": 1302,
      "रिया": 1303,
      "उन्हें": 1304,
      "चर": 1305,
      "िकार": 1306,
      "देख": 1307,
      "सद": 1308,
      "तर": 1309,
      "द्र": 1310,
      "अनु": 1311,
      "अल्मोड़ा": 1312,
      "पुलि": 1313,
      "सिंह": 1314,
      "कृष्": 1315,
      "जे": 1316,
      "घा": 1317,
      "रान": 1318,
      "करते": 1319,
      "बहुत": 1320,
      "समय": 1321,
      "धा": 1322,
      "सन": 1323,
      "केट": 1324,
      "पौड़ी": 1325,
      "अपनी": 1326,
      "शुर": 1327,
      "पति": 1328,
      "साल": 1329,
      "ज़ा": 1330,
      "निया": 1331,
      "बीच": 1332,
      "तरह": 1333,
      "किसी": 1334,
      "श्वर": 1335,
      "माम": 1336,
      "पै": 1337,
      "लै": 1338,
      "पुलिस": 1339,
      "सार": 1340,
      "बो": 1341,
      "पो": 1342,
      "बु": 1343,
      "हू": 1344,
      "पिछ": 1345,
      "सुर": 1346,
      "शे": 1347,
      "वर्ष": 1348,
      "उनका": 1349,
      "वाद": 1350,
      "जाने": 1351,
      "सेना": 1352,
      "छा": 1353,
      "ौर": 1354,
      "परि": 1355,
      "ंक": 1356,
      "द्ध": 1357,
      "बंध": 1358,
      "कृष्णा": 1359,
      "गं": 1360,
      "चल": 1361,
      "शी": 1362,
      "संग": 1363,
      "टीम": 1364,
      "इसके": 1365,
      "बढ़": 1366,
      "नीति": 1367,
      "200": 1368,
      "श्री": 1369,
      "भाग": 1370,
      "कै": 1371,
      "डे": 1372,
      "ंब": 1373,
      "यू": 1374,
      "ल्ली": 1375,
      "्यों": 1376,
      "नाम": 1377,
      "अधिकार": 1378,
      "ज़ार": 1379,
      "पहु": 1380,
      "जू": 1381,
      "चौ": 1382,
      "उप": 1383,
      "डि": 1384,
      "नैनी": 1385,
      "कांग्रे": 1386,
      "पर्": 1387,
      "थो": 1388,
      "नैनीताल": 1389,
      "टि": 1390,
      "पिछले": 1391,
      "प्रा": 1392,
      "मह": 1393,
      "योग": 1394,
      "कांग्रेस": 1395,
      "झे": 1396,
      "जु": 1397,
      "दिला": 1398,
      "द्व": 1399,
      "अनंत": 1400,
      "ख़ा": 1401,
      "अली": 1402,
      "राष्ट्रपति": 1403,
      "वत": 1404,
      "प्रमुख": 1405,
      "फिर": 1406,
      "उनकी": 1407,
      "अमरीका": 1408,
      "ब्र": 1409,
      "अनंतपुर": 1410,
      "सबसे": 1411,
      "चाह": 1412,
      "ंद्र": 1413,
      "यहाँ": 1414,
      "भू": 1415,
      "समा": 1416,
      "लू": 1417,
      "ओर": 1418,
      "ेंगे": 1419,
      "छत्त": 1420,
      "दल": 1421,
      "प्त": 1422,
      "ीसगढ़": 1423,
      "दर": 1424,
      "्यादा": 1425,
      "रागढ": 1426,
      "स्थान": 1427,
      "छत्तीसगढ़": 1428,
      "ठा": 1429,
      "वन": 1430,
      "धार": 1431,
      "लय": 1432,
      "दान": 1433,
      "राम": 1434,
      "क्रि": 1435,
      "बन": 1436,
      "बताया": 1437,
      "मैच": 1438,
      "र्ट": 1439,
      "कर्न": 1440,
      "ज्": 1441,
      "जाता": 1442,
      "क्या": 1443,
      "वह": 1444,
      "जान": 1445,
      "घो": 1446,
      "वाली": 1447,
      "घर": 1448,
      "ूलु": 1449,
      "कर्नूलु": 1450,
      "ंबई": 1451,
      "दार": 1452,
      "पास": 1453,
      "मुंबई": 1454,
      "मुख्य": 1455,
      "अभि": 1456,
      "ज़ि": 1457,
      "दिल्ली": 1458,
      "वं": 1459,
      "रन": 1460,
      "पत्र": 1461,
      "स्ता": 1462,
      "राष्ट्रीय": 1463,
      "ंप": 1464,
      "पटना": 1465,
      "दिलाबाद": 1466,
      "र्र": 1467,
      "अदिलाबाद": 1468,
      "अमरीकी": 1469,
      "हाबाद": 1470,
      "अदिलाबादु": 1471,
      "गू": 1472,
      "तीन": 1473,
      "वै": 1474,
      "होता": 1475,
      "मुझे": 1476,
      "लेबा": 1477,
      "गि": 1478,
      "हिए": 1479,
      "मपं": 1480,
      "छो": 1481,
      "क्यों": 1482,
      "प्रधान": 1483,
      "दोनों": 1484,
      "चाहिए": 1485,
      "शहर": 1486,
      "लैंड": 1487,
      "ज़्यादा": 1488,
      "अंत": 1489,
      "अर": 1490,
      "जीत": 1491,
      "रख": 1492,
      "गह": 1493,
      "सकता": 1494,
      "न्न": 1495,
      "बारे": 1496,
      "क़ा": 1497,
      "कार्य": 1498,
      "कार्": 1499,
      "भाव": 1500,
      "करना": 1501,
      "रोप": 1502,
      "चन": 1503,
      "फ़ा": 1504,
      "ज़र": 1505,
      "बीसी": 1506,
      "हूँ": 1507,
      "वाई": 1508,
      "रायगढ़": 1509,
      "दिन": 1510,
      "सुरक्षा": 1511,
      "चरमपं": 1512,
      "होगा": 1513,
      "सल": 1514,
      "राजनीति": 1515,
      "प्रधानमंत्री": 1516,
      "िलाफ़": 1517,
      "फ़ी": 1518,
      "मद": 1519,
      "यार": 1520,
      "आग": 1521,
      "डॉ": 1522,
      "लपुर": 1523,
      "पिथो": 1524,
      "पिथोरागढ": 1525,
      "हन": 1526,
      "गिक": 1527,
      "इलाहाबाद": 1528,
      "दौरान": 1529,
      "सला": 1530,
      "पूर्व": 1531,
      "जय": 1532,
      "स्वा": 1533,
      "म्मी": 1534,
      "कारण": 1535,
      "लंका": 1536,
      "ख़िलाफ़": 1537,
      "विश्व": 1538,
      "सरे": 1539,
      "यौ": 1540,
      "नगर": 1541,
      "श्रीलंका": 1542,
      "चित": 1543,
      "णी": 1544,
      "धी": 1545,
      "मग": 1546,
      "उम्मी": 1547,
      "सां": 1548,
      "महा": 1549,
      "उम्मीद": 1550,
      "लेकर": 1551,
      "ऐसा": 1552,
      "कट": 1553,
      "इससे": 1554,
      "जवा": 1555,
      "फ़ै": 1556,
      "अफ़": 1557,
      "कॉ": 1558,
      "यन": 1559,
      "रूप": 1560,
      "मोली": 1561,
      "ंग्": 1562,
      "युक्त": 1563,
      "क्षि": 1564,
      "भर": 1565,
      "लत": 1566,
      "ंत्र": 1567,
      "एल": 1568,
      "नो": 1569,
      "ंगाबाद": 1570,
      "खु": 1571,
      "अच्": 1572,
      "चै": 1573,
      "दक्षि": 1574,
      "नाग": 1575,
      "औरंगाबाद": 1576,
      "बीबीसी": 1577,
      "यौगिक": 1578,
      "एँ": 1579,
      "कहते": 1580,
      "बनिक": 1581,
      "कार्बनिक": 1582,
      "हाला": 1583,
      "चमोली": 1584,
      "बच्": 1585,
      "बल्": 1586,
      "गंज": 1587,
      "बामा": 1588,
      "मार्": 1589,
      "ओबामा": 1590,
      "तु": 1591,
      "सकते": 1592,
      "अगर": 1593,
      "साम": 1594,
      "अलीगढ़": 1595,
      "प्": 1596,
      "घोष": 1597,
      "इल": 1598,
      "टो": 1599,
      "निर्वा": 1600,
      "सीट": 1601,
      "वहाँ": 1602,
      "त्म": 1603,
      "भग": 1604,
      "अभी": 1605,
      "भे": 1606,
      "तमिल": 1607,
      "आत": 1608,
      "ज्ञ": 1609,
      "दाता": 1610,
      "द्वारा": 1611,
      "अपना": 1612,
      "मगध": 1613,
      "केंद्र": 1614,
      "देने": 1615,
      "जगह": 1616,
      "डु": 1617,
      "हमले": 1618,
      "बागे": 1619,
      "शुरु": 1620,
      "मारे": 1621,
      "इं": 1622,
      "बागेश्वर": 1623,
      "अं": 1624,
      "इलाक़": 1625,
      "एस": 1626,
      "फ़्त": 1627,
      "ोर": 1628,
      "सर्": 1629,
      "खेल": 1630,
      "बड़ी": 1631,
      "ंगे": 1632,
      "क्रिकेट": 1633,
      "तै": 1634,
      "पश्": 1635,
      "सह": 1636,
      "ऐसे": 1637,
      "क्योंकि": 1638,
      "कंप": 1639,
      "सराय": 1640,
      "करा": 1641,
      "हों": 1642,
      "अनुसार": 1643,
      "हत": 1644,
      "ग्": 1645,
      "मामले": 1646,
      "कड": 1647,
      "समझ": 1648,
      "शामिल": 1649,
      "ृत": 1650,
      "आगरा": 1651,
      "निर्वाचन": 1652,
      "देशों": 1653,
      "घटना": 1654,
      "शुरू": 1655,
      "यल": 1656,
      "होती": 1657,
      "सभी": 1658,
      "र्ड": 1659,
      "दक्षिण": 1660,
      "आए": 1661,
      "लु": 1662,
      "पाल": 1663,
      "व्यव": 1664,
      "उसके": 1665,
      "बैठ": 1666,
      "पाँच": 1667,
      "199": 1668,
      "पश्चि": 1669,
      "कन्": 1670,
      "क्ति": 1671,
      "ख्या": 1672,
      "हे": 1673,
      "दर्शन": 1674,
      "अग": 1675,
      "बर्": 1676,
      "गिर": 1677,
      "सम्": 1678,
      "किए": 1679,
      "नीय": 1680,
      "दुनिया": 1681,
      "एम": 1682,
      "गुर": 1683,
      "ब्रि": 1684,
      "आरोप": 1685,
      "जपा": 1686,
      "सौ": 1687,
      "वल": 1688,
      "यान": 1689,
      "नल": 1690,
      "बंद": 1691,
      "महि": 1692,
      "ारे": 1693,
      "जिन": 1694,
      "चीत": 1695,
      "शु": 1696,
      "न्या": 1697,
      "ंट": 1698,
      "अधिक": 1699,
      "कल": 1700,
      "कोशि": 1701,
      "विदेश": 1702,
      "बातचीत": 1703,
      "198": 1704,
      "कडप": 1705,
      "णु": 1706,
      "सिल": 1707,
      "हज़ार": 1708,
      "खिला": 1709,
      "जहाँ": 1710,
      "जारी": 1711,
      "सत": 1712,
      "छे": 1713,
      "मैंने": 1714,
      "दूस": 1715,
      "अंग्रे": 1716,
      "कोशिश": 1717,
      "हरा": 1718,
      "भागलपुर": 1719,
      "आम": 1720,
      "अलग": 1721,
      "मू": 1722,
      "भाजपा": 1723,
      "तना": 1724,
      "दूसरे": 1725,
      "ज़रू": 1726,
      "दिर": 1727,
      "पड़": 1728,
      "्स": 1729,
      "विका": 1730,
      "इट": 1731,
      "जनता": 1732,
      "स्थिति": 1733,
      "धर": 1734,
      "कोट": 1735,
      "घोषणा": 1736,
      "मिला": 1737,
      "रात": 1738,
      "इसका": 1739,
      "कारी": 1740,
      "हाल": 1741,
      "संघ": 1742,
      "पल्": 1743,
      "काफ़ी": 1744,
      "जिला": 1745,
      "कन्नौ": 1746,
      "कन्नौज": 1747,
      "अन्य": 1748,
      "खंड": 1749,
      "महिला": 1750,
      "न्यू": 1751,
      "वान": 1752,
      "इसी": 1753,
      "हमलों": 1754,
      "वाला": 1755,
      "लर": 1756,
      "क्रम": 1757,
      "स्प": 1758,
      "ंकि": 1759,
      "शो": 1760,
      "पक्ष": 1761,
      "रत": 1762,
      "ध्य": 1763,
      "जैसे": 1764,
      "विकास": 1765,
      "आर": 1766,
      "ंव": 1767,
      "तालेबा": 1768,
      "र्ष": 1769,
      "विधान": 1770,
      "काल": 1771,
      "स्टे": 1772,
      "सकती": 1773,
      "उठा": 1774,
      "हिं": 1775,
      "हिस्": 1776,
      "इसे": 1777,
      "इंड": 1778,
      "मही": 1779,
      "वित": 1780,
      "अधिकारियों": 1781,
      "मुद्": 1782,
      "क्स": 1783,
      "ल्ला": 1784,
      "अर्थ": 1785,
      "्ता": 1786,
      "ंगल": 1787,
      "जें": 1788,
      "संवाद": 1789,
      "व्यवस्था": 1790,
      "संख्या": 1791,
      "एवं": 1792,
      "द्रो": 1793,
      "तालेबान": 1794,
      "आगे": 1795,
      "जना": 1796,
      "विकेट": 1797,
      "ौली": 1798,
      "फ़ि": 1799,
      "पुरा": 1800,
      "बू": 1801,
      "ैर": 1802,
      "करे": 1803,
      "सान": 1804,
      "जबकि": 1805,
      "मुता": 1806,
      "दम": 1807,
      "१९": 1808,
      "समर्थ": 1809,
      "आर्थ": 1810,
      "खो": 1811,
      "बाहर": 1812,
      "बड़े": 1813,
      "प्रखण्ड": 1814,
      "मुताबि": 1815,
      "10": 1816,
      "ूख़ा": 1817,
      "फ़र्र": 1818,
      "ूख़ाबाद": 1819,
      "फ़र्रूख़ाबाद": 1820,
      "दिनों": 1821,
      "बेगू": 1822,
      "पहली": 1823,
      "बेगूसराय": 1824,
      "आने": 1825,
      "ंधी": 1826,
      "माल": 1827,
      "चैनल": 1828,
      "पट": 1829,
      "ून": 1830,
      "आर्थिक": 1831,
      "ंस": 1832,
      "र्म": 1833,
      "समु": 1834,
      "विरो": 1835,
      "विद्रो": 1836,
      "स्ट्रे": 1837,
      "ग्र": 1838,
      "चम्": 1839,
      "इड": 1840,
      "सके": 1841,
      "माँ": 1842,
      "जिसमें": 1843,
      "अभ": 1844,
      "गठ": 1845,
      "प्रदर्शन": 1846,
      "दिखा": 1847,
      "पूरी": 1848,
      "अंतर": 1849,
      "टीवी": 1850,
      "गांधी": 1851,
      "हाट": 1852,
      "जाएगा": 1853,
      "संवाददाता": 1854,
      "हारा": 1855,
      "कुल": 1856,
      "हाथ": 1857,
      "धानी": 1858,
      "नज़र": 1859,
      "सामने": 1860,
      "गें": 1861,
      "आज": 1862,
      "षण": 1863,
      "ियाँ": 1864,
      "ठी": 1865,
      "चला": 1866,
      "पहुँच": 1867,
      "एन": 1868,
      "हां": 1869,
      "धन": 1870,
      "मेरे": 1871,
      "लगभग": 1872,
      "चम्पा": 1873,
      "माना": 1874,
      "राजनीतिक": 1875,
      "स्वी": 1876,
      "पूर": 1877,
      "रेल": 1878,
      "इसलिए": 1879,
      "हमला": 1880,
      "चम्पावत": 1881,
      "बरा": 1882,
      "लेख": 1883,
      "सिर्": 1884,
      "पहुँ": 1885,
      "दूर": 1886,
      "यक": 1887,
      "लन": 1888,
      "र्स": 1889,
      "वादी": 1890,
      "फ़िल्मों": 1891,
      "पत्रकार": 1892,
      "तब": 1893,
      "अला": 1894,
      "सैनिक": 1895,
      "चक": 1896,
      "इसमें": 1897,
      "इस्त": 1898,
      "निर्मा": 1899,
      "चना": 1900,
      "होगी": 1901,
      "सचि": 1902,
      "स्ट्रेलिया": 1903,
      "जल": 1904,
      "बॉ": 1905,
      "पौडी": 1906,
      "चर्": 1907,
      "शेष": 1908,
      "अहम": 1909,
      "क्षण": 1910,
      "जूद": 1911,
      "अदा": 1912,
      "ट्र": 1913,
      "पूर्ण": 1914,
      "उसे": 1915,
      "बस": 1916,
      "याद": 1917,
      "कला": 1918,
      "राजधानी": 1919,
      "मोहन": 1920,
      "पोर्ट": 1921,
      "संगठ": 1922,
      "कार्र": 1923,
      "चरमपंथ": 1924,
      "ष्ठ": 1925,
      "करण": 1926,
      "लड़": 1927,
      "पता": 1928,
      "जाँच": 1929,
      "चीन": 1930,
      "लगता": 1931,
      "वज": 1932,
      "अध्य": 1933,
      "कभी": 1934,
      "बद": 1935,
      "लख": 1936,
      "बह": 1937,
      "कार्रवाई": 1938,
      "टन": 1939,
      "बनाए": 1940,
      "फ़ैसला": 1941,
      "फल": 1942,
      "विधानसभा": 1943,
      "मतदान": 1944,
      "अंग्रेज़ी": 1945,
      "गेंद": 1946,
      "धमा": 1947,
      "नर": 1948,
      "मौत": 1949,
      "करी": 1950,
      "दारी": 1951,
      "साह": 1952,
      "भूमि": 1953,
      "जाती": 1954,
      "मदद": 1955,
      "तथा": 1956,
      "सात": 1957,
      "यात्र": 1958,
      "लाख": 1959,
      "ऑस्ट्रेलिया": 1960,
      "नेताओं": 1961,
      "सवाल": 1962,
      "ख़ु": 1963,
      "अलावा": 1964,
      "बड़ा": 1965,
      "एजें": 1966,
      "डिया": 1967,
      "लोकसभा": 1968,
      "ग़ा": 1969,
      "मुख्यमंत्री": 1970,
      "पद": 1971,
      "इलाक़े": 1972,
      "वजह": 1973,
      "मिले": 1974,
      "मंदिर": 1975,
      "रुप": 1976,
      "तार": 1977,
      "कप": 1978,
      "वास": 1979,
      "जर": 1980,
      "ंदन": 1981,
      "राजस्थान": 1982,
      "इसकी": 1983,
      "नागरि": 1984,
      "िका": 1985,
      "टेस्ट": 1986,
      "नाथ": 1987,
      "्यो": 1988,
      "संबंध": 1989,
      "जाते": 1990,
      "मीर": 1991,
      "थि": 1992,
      "संयुक्त": 1993,
      "निस्तान": 1994,
      "नु": 1995,
      "लब": 1996,
      "विशेष": 1997,
      "गांव": 1998,
      "कुमार": 1999,
      "सिद्ध": 2000,
      "आया": 2001,
      "शत": 2002,
      "योजना": 2003,
      "197": 2004,
      "महारा": 2005,
      "रॉ": 2006,
      "उम्मीदवार": 2007,
      "ंजन": 2008,
      "चुके": 2009,
      "देव": 2010,
      "्यालय": 2011,
      "मर": 2012,
      "ख़बर": 2013,
      "बाज़ार": 2014,
      "सिर्फ़": 2015,
      "सित": 2016,
      "बनाया": 2017,
      "फूल": 2018,
      "लाल": 2019,
      "चाहते": 2020,
      "दूसरी": 2021,
      "छी": 2022,
      "साब": 2023,
      "ंच": 2024,
      "अव": 2025,
      "छह": 2026,
      "अधिकारी": 2027,
      "फो": 2028,
      "यत": 2029,
      "पश्चिम": 2030,
      "होते": 2031,
      "कृति": 2032,
      "पर्य": 2033,
      "मिली": 2034,
      "तिहा": 2035,
      "वक्त": 2036,
      "शासन": 2037,
      "थीं": 2038,
      "रल": 2039,
      "ील": 2040,
      "बयान": 2041,
      "प्रभाव": 2042,
      "दियों": 2043,
      "अदालत": 2044,
      "राव": 2045,
      "करता": 2046,
      "पसं": 2047,
      "दिए": 2048,
      "मीटर": 2049,
      "चरमपंथियों": 2050,
      "रीब": 2051,
      "संघर्ष": 2052,
      "आपको": 2053,
      "प्रे": 2054,
      "अंतरराष्ट्रीय": 2055,
      "टक": 2056,
      "तौर": 2057,
      "बैठक": 2058,
      "लिक": 2059,
      "प्रतिशत": 2060,
      "हालांकि": 2061,
      "नई": 2062,
      "भीर": 2063,
      "बनाने": 2064,
      "उत्": 2065,
      "सैण": 2066,
      "हमें": 2067,
      "क़ी": 2068,
      "क़ान": 2069,
      "अररिया": 2070,
      "बंधन": 2071,
      "जन्": 2072,
      "रै": 2073,
      "चरमपंथी": 2074,
      "पड़ा": 2075,
      "लड़ा": 2076,
      "लंदन": 2077,
      "प्रसिद्ध": 2078,
      "र्ण": 2079,
      "मंड": 2080,
      "शं": 2081,
      "महीने": 2082,
      "ऐसी": 2083,
      "००": 2084,
      "वित्त": 2085,
      "तैयार": 2086,
      "बाव": 2087,
      "संकट": 2088,
      "फा": 2089,
      "रिपोर्ट": 2090,
      "जानकारी": 2091,
      "बल्लेबा": 2092,
      "धि": 2093,
      "मध्य": 2094,
      "गार": 2095,
      "त्व": 2096,
      "दर्श": 2097,
      "ंबर": 2098,
      "मनमोहन": 2099,
      "ईरान": 2100,
      "जाना": 2101,
      "चों": 2102,
      "विक": 2103,
      "स्तानी": 2104,
      "चो": 2105,
      "यानी": 2106,
      "आवा": 2107,
      "बल": 2108,
      "व्यक्ति": 2109,
      "बढ़ा": 2110,
      "त्ता": 2111,
      "आईपी": 2112,
      "समाचार": 2113,
      "गंभीर": 2114,
      "ध्व": 2115,
      "ंडिया": 2116,
      "ग़ानिस्तान": 2117,
      "करेंगे": 2118,
      "दाय": 2119,
      "मेरी": 2120,
      "मुंगे": 2121,
      "पुर्ण": 2122,
      "सदस": 2123,
      "सलमान": 2124,
      "अफ़ग़ानिस्तान": 2125,
      "विरोध": 2126,
      "पुर्णिया": 2127,
      "ख़ान": 2128,
      "मुंगेर": 2129,
      "15": 2130,
      "उद": 2131,
      "टू": 2132,
      "दिल": 2133,
      "आतंक": 2134,
      "गुरु": 2135,
      "परिवार": 2136,
      "कप्त": 2137,
      "हंडिया": 2138,
      "कश्": 2139,
      "रानी": 2140,
      "करो": 2141,
      "खि": 2142,
      "केश्वर": 2143,
      "स्तर": 2144,
      "छोड़": 2145,
      "संगठन": 2146,
      "अल": 2147,
      "आठ": 2148,
      "नारा": 2149,
      "पक": 2150,
      "बेह": 2151,
      "ब्रा": 2152,
      "व्या": 2153,
      "जन्म": 2154,
      "शिया": 2155,
      "प्रया": 2156,
      "जित": 2157,
      "वरी": 2158,
      "रोक": 2159,
      "जवाब": 2160,
      "ंति": 2161,
      "कोल": 2162,
      "हियों": 2163,
      "कंपनी": 2164,
      "जॉ": 2165,
      "ोली": 2166,
      "नए": 2167,
      "पंजा": 2168,
      "हिस्सा": 2169,
      "बने": 2170,
      "सुन": 2171,
      "कौ": 2172,
      "अध्यक्ष": 2173,
      "आईपीएल": 2174,
      "निर्देश": 2175,
      "सदर": 2176,
      "डॉलर": 2177,
      "खिलाड़ी": 2178,
      "वहीं": 2179,
      "काश": 2180,
      "गति": 2181,
      "त्री": 2182,
      "वोट": 2183,
      "छि": 2184,
      "भव": 2185,
      "स्व": 2186,
      "करें": 2187,
      "पेश": 2188,
      "वाप": 2189,
      "उल्": 2190,
      "ड़िया": 2191,
      "पानी": 2192,
      "आधार": 2193,
      "टल": 2194,
      "फ़े": 2195,
      "हमारे": 2196,
      "पाकिस्तानी": 2197,
      "ध्या": 2198,
      "अभिनेता": 2199,
      "रों": 2200,
      "आयो": 2201,
      "चेन्न": 2202,
      "र्रु": 2203,
      "इंग्": 2204,
      "अभिया": 2205,
      "मार्ग": 2206,
      "ंता": 2207,
      "क्रिया": 2208,
      "यमकेश्वर": 2209,
      "मुताबिक": 2210,
      "सीटों": 2211,
      "ग्रा": 2212,
      "वु": 2213,
      "असर": 2214,
      "ैल": 2215,
      "लेने": 2216,
      "कोर्ट": 2217,
      "खाबाद": 2218,
      "बच्चों": 2219,
      "किलो": 2220,
      "करती": 2221,
      "फर्रु": 2222,
      "श्र": 2223,
      "चरण": 2224,
      "फर्रुखाबाद": 2225,
      "ज़िम्": 2226,
      "अर्": 2227,
      "अच्छा": 2228,
      "खर": 2229,
      "विमान": 2230,
      "मुला": 2231,
      "बैंक": 2232,
      "इरा": 2233,
      "ीत": 2234,
      "फ़ो": 2235,
      "ल्स": 2236,
      "इस्": 2237,
      "प्रांत": 2238,
      "धो": 2239,
      "लाई": 2240,
      "घाट": 2241,
      "शान": 2242,
      "देखने": 2243,
      "गठबंधन": 2244,
      "करोड़": 2245,
      "लौ": 2246,
      "एं": 2247,
      "ज्ञा": 2248,
      "रुण": 2249,
      "खेत": 2250,
      "अभियान": 2251,
      "बंगा": 2252,
      "शर": 2253,
      "00": 2254,
      "स्थल": 2255,
      "महाराष्ट्र": 2256,
      "टेन": 2257,
      "ार्": 2258,
      "समर्थन": 2259,
      "रखा": 2260,
      "पारी": 2261,
      "विद्रोहियों": 2262,
      "चेन्नई": 2263,
      "ंदा": 2264,
      "झा": 2265,
      "कहीं": 2266,
      "इत": 2267,
      "नदी": 2268,
      "क्टर": 2269,
      "विश्": 2270,
      "ंग्ला": 2271,
      "लगे": 2272,
      "सले": 2273,
      "ड़ियों": 2274,
      "विचार": 2275,
      "ंदर": 2276,
      "किल": 2277,
      "फूलपुर": 2278,
      "कप्तान": 2279,
      "खी": 2280,
      "कान": 2281,
      "घायल": 2282,
      "कार्यक्रम": 2283,
      "टिक": 2284,
      "पन": 2285,
      "इंग्लैंड": 2286,
      "मीडिया": 2287,
      "कश्मीर": 2288,
      "कायम": 2289,
      "प्रो": 2290,
      "िता": 2291,
      "केवल": 2292,
      "स्या": 2293,
      "ज़िम्मे": 2294,
      "गृ": 2295,
      "ट्ट": 2296,
      "ड्ड": 2297,
      "विद": 2298,
      "11": 2299,
      "ंडा": 2300,
      "जीवन": 2301,
      "रगढ": 2302,
      "सैन": 2303,
      "भूमिका": 2304,
      "उट": 2305,
      "जता": 2306,
      "पूरा": 2307,
      "शुक्र": 2308,
      "देते": 2309,
      "गिरफ़्त": 2310,
      "सांरगढ": 2311,
      "क़ानून": 2312,
      "बांग्ला": 2313,
      "पात": 2314,
      "अकार्बनिक": 2315,
      "सोम": 2316,
      "होना": 2317,
      "लम": 2318,
      "ूर": 2319,
      "दुर्": 2320,
      "यंत्र": 2321,
      "वक्ता": 2322,
      "तरी": 2323,
      "धु": 2324,
      "मंगल": 2325,
      "ल्ड": 2326,
      "स्कार": 2327,
      "हिंद": 2328,
      "12": 2329,
      "बचा": 2330,
      "यद": 2331,
      "पूरे": 2332,
      "सरकारी": 2333,
      "स्थानीय": 2334,
      "अभिने": 2335,
      "फि": 2336,
      "ख़त्म": 2337,
      "अरब": 2338,
      "रेलवे": 2339,
      "िय": 2340,
      "ीसराय": 2341,
      "अच्छी": 2342,
      "जाएँ": 2343,
      "बराक": 2344,
      "लखीसराय": 2345,
      "घु": 2346,
      "सफल": 2347,
      "मंत्रा": 2348,
      "लने": 2349,
      "मिक": 2350,
      "मंदी": 2351,
      "जिसके": 2352,
      "बल्कि": 2353,
      "शुरुआत": 2354,
      "काता": 2355,
      "लगाया": 2356,
      "व्यंजन": 2357,
      "रवि": 2358,
      "लॉ": 2359,
      "जाएगी": 2360,
      "आयोग": 2361,
      "बदल": 2362,
      "स्टेशन": 2363,
      "कोलकाता": 2364,
      "14": 2365,
      "ढा": 2366,
      "लॆ": 2367,
      "हमने": 2368,
      "किलोमीटर": 2369,
      "सड़": 2370,
      "प्रकाश": 2371,
      "मुश्": 2372,
      "बुध": 2373,
      "टिंग": 2374,
      "ब्रिटेन": 2375,
      "प्रवक्ता": 2376,
      "संगीत": 2377,
      "लक्ष": 2378,
      "जल्": 2379,
      "वरुण": 2380,
      "युद्ध": 2381,
      "पंजाब": 2382,
      "उनसे": 2383,
      "मौजूद": 2384,
      "रहने": 2385,
      "स्थाप": 2386,
      "दन": 2387,
      "भु": 2388,
      "चुकी": 2389,
      "बारा": 2390,
      "18": 2391,
      "फी": 2392,
      "यही": 2393,
      "स्को": 2394,
      "पहला": 2395,
      "चर्चा": 2396,
      "देखा": 2397,
      "सिक": 2398,
      "होंगे": 2399,
      "मल": 2400,
      "वें": 2401,
      "माँग": 2402,
      "प्री": 2403,
      "सीमा": 2404,
      "सहा": 2405,
      "र्क": 2406,
      "ँकि": 2407,
      "गौ": 2408,
      "एफ़": 2409,
      "्रीका": 2410,
      "ज़रूरत": 2411,
      "गंग": 2412,
      "डर": 2413,
      "मुसलमान": 2414,
      "चुनावों": 2415,
      "अल्मोडा": 2416,
      "वर्त": 2417,
      "मंत्रालय": 2418,
      "रंग": 2419,
      "वालों": 2420,
      "पसंद": 2421,
      "ऊपर": 2422,
      "क़रीब": 2423,
      "ड़ों": 2424,
      "पाली": 2425,
      "शांति": 2426,
      "अर्थव्यवस्था": 2427,
      "ेमाल": 2428,
      "नेट": 2429,
      "इस्तेमाल": 2430,
      "पिता": 2431,
      "धे": 2432,
      "मण": 2433,
      "नेत": 2434,
      "क़दम": 2435,
      "कू": 2436,
      "परे": 2437,
      "लड़ाई": 2438,
      "बंगाल": 2439,
      "भावना": 2440,
      "समझौ": 2441,
      "बुधवार": 2442,
      "चिंता": 2443,
      "यात्रा": 2444,
      "शुक्रवार": 2445,
      "गुज": 2446,
      "आउट": 2447,
      "नियों": 2448,
      "मेरा": 2449,
      "निर्माण": 2450,
      "समस्या": 2451,
      "मुश्किल": 2452,
      "आँ": 2453,
      "ज़ीलैंड": 2454,
      "मूल": 2455,
      "माने": 2456,
      "पहुँचा": 2457,
      "ष्टि": 2458,
      "16": 2459,
      "भो": 2460,
      "अभिनेत्री": 2461,
      "न्यूज़ीलैंड": 2462,
      "मज़": 2463,
      "कोरिया": 2464,
      "पत्": 2465,
      "वरि": 2466,
      "गोली": 2467,
      "मैदान": 2468,
      "कमी": 2469,
      "सुबह": 2470,
      "कायमगंज": 2471,
      "पहा": 2472,
      "बम": 2473,
      "फ़र": 2474,
      "13": 2475,
      "श्रे": 2476,
      "लास": 2477,
      "माया": 2478,
      "वीं": 2479,
      "हालाँकि": 2480,
      "गुरुवार": 2481,
      "सोमवार": 2482,
      "नया": 2483,
      "सम्मे": 2484,
      "कन": 2485,
      "किर": 2486,
      "मुक़ा": 2487,
      "बारी": 2488,
      "डो": 2489,
      "यदा": 2490,
      "50": 2491,
      "अल्": 2492,
      "विधा": 2493,
      "संस्था": 2494,
      "रोज़": 2495,
      "सांसद": 2496,
      "दपुर": 2497,
      "ज़ोर": 2498,
      "कियासैण": 2499,
      "पीछे": 2500,
      "भिकियासैण": 2501,
      "छात्र": 2502,
      "फ़ीस": 2503,
      "यूरोप": 2504,
      "हत्या": 2505,
      "श्य": 2506,
      "्यु": 2507,
      "हासिल": 2508,
      "तहत": 2509,
      "देखते": 2510,
      "पर्वत": 2511,
      "धिकार": 2512,
      "ॉल": 2513,
      "सीय": 2514,
      "196": 2515,
      "सूची": 2516,
      "एजेंसी": 2517,
      "ारो": 2518,
      "क्षित": 2519,
      "बिना": 2520,
      "कर्ता": 2521,
      "भारी": 2522,
      "अगले": 2523,
      "वुड": 2524,
      "सम्मेलन": 2525,
      "शरी": 2526,
      "चुका": 2527,
      "इंटर": 2528,
      "पल्लॆ": 2529,
      "हिंसा": 2530,
      "मंगलवार": 2531,
      "मुक़ाब": 2532,
      "फे": 2533,
      "विष": 2534,
      "सोच": 2535,
      "इस्ला": 2536,
      "कैसे": 2537,
      "गैर": 2538,
      "सही": 2539,
      "लिंग": 2540,
      "हल": 2541,
      "हथि": 2542,
      "धारी": 2543,
      "महत्व": 2544,
      "हथियार": 2545,
      "राब": 2546,
      "माओ": 2547,
      "न्हें": 2548,
      "प्रभावित": 2549,
      "रनों": 2550,
      "राजा": 2551,
      "ध्वज": 2552,
      "धर्म": 2553,
      "सें": 2554,
      "हौ": 2555,
      "शाह": 2556,
      "ज़िले": 2557,
      "आता": 2558,
      "बज": 2559,
      "पाए": 2560,
      "पुरस्कार": 2561,
      "पल्लि": 2562,
      "वती": 2563,
      "अपील": 2564,
      "सदस्य": 2565,
      "अप्र": 2566,
      "फ़्": 2567,
      "शायद": 2568,
      "दिख": 2569,
      "बराम": 2570,
      "वेश": 2571,
      "र्जी": 2572,
      "होटल": 2573,
      "लगातार": 2574,
      "रस": 2575,
      "जाति": 2576,
      "स्ती": 2577,
      "आपकी": 2578,
      "आं": 2579,
      "दर्ज": 2580,
      "गिरफ़्तार": 2581,
      "प्रचार": 2582,
      "शिव": 2583,
      "वर्ग": 2584,
      "स्पष्ट": 2585,
      "तय": 2586,
      "समाज": 2587,
      "सचिन": 2588,
      "आते": 2589,
      "विवाद": 2590,
      "ओवर": 2591,
      "दस": 2592,
      "लगी": 2593,
      "शर्": 2594,
      "किस": 2595,
      "पत्रकारों": 2596,
      "फ़ीसदी": 2597,
      "यता": 2598,
      "स्क": 2599,
      "वाणी": 2600,
      "ान्त": 2601,
      "इलाक़ों": 2602,
      "di": 2603,
      "मपुर": 2604,
      "वादियों": 2605,
      "वैसे": 2606,
      "30": 2607,
      "ताकि": 2608,
      "वरिष्ठ": 2609,
      "दौर": 2610,
      "सचिव": 2611,
      "नती": 2612,
      "हल्": 2613,
      "उसकी": 2614,
      "गण": 2615,
      "ज़ों": 2616,
      "नियंत्र": 2617,
      "पान": 2618,
      "कमा": 2619,
      "लें": 2620,
      "संसद": 2621,
      "वित्तीय": 2622,
      "ट्रे": 2623,
      "शब्": 2624,
      "हम्": 2625,
      "उसका": 2626,
      "गर्": 2627,
      "धारा": 2628,
      "माइ": 2629,
      "ख़ास": 2630,
      "ध्यान": 2631,
      "ृत्व": 2632,
      "ठीक": 2633,
      "खरी": 2634,
      "नियम": 2635,
      "मंडल": 2636,
      "ंटे": 2637,
      "नग": 2638,
      "हटा": 2639,
      "हिंदी": 2640,
      "मेरि": 2641,
      "आख़": 2642,
      "ऑफ़": 2643,
      "नाडु": 2644,
      "कोइल": 2645,
      "देना": 2646,
      "म्स": 2647,
      "मुद्दे": 2648,
      "यादव": 2649,
      "रावट": 2650,
      "उर्": 2651,
      "फु": 2652,
      "पार्ट": 2653,
      "गिरावट": 2654,
      "रखने": 2655,
      "कल्": 2656,
      "दों": 2657,
      "त्मक": 2658,
      "नेतृत्व": 2659,
      "आन": 2660,
      "ित्य": 2661,
      "सैं": 2662,
      "फै": 2663,
      "मई": 2664,
      "शनि": 2665,
      "ारू": 2666,
      "र्य": 2667,
      "नव": 2668,
      "लक": 2669,
      "करके": 2670,
      "परमा": 2671,
      "प्रान्त": 2672,
      "कहानी": 2673,
      "उल्लेख": 2674,
      "जों": 2675,
      "तरा": 2676,
      "फ्": 2677,
      "मित": 2678,
      "सत्ता": 2679,
      "नीचे": 2680,
      "वापस": 2681,
      "गृह": 2682,
      "बरो": 2683,
      "न्द्र": 2684,
      "निशा": 2685,
      "तीसरे": 2686,
      "वर्षों": 2687,
      "केंद्रीय": 2688,
      "एशिया": 2689,
      "तों": 2690,
      "त्य": 2691,
      "लब्": 2692,
      "स्ते": 2693,
      "खाल": 2694,
      "पार्": 2695,
      "चाहता": 2696,
      "घाटी": 2697,
      "नागरिक": 2698,
      "परमाणु": 2699,
      "पैदा": 2700,
      "चित्र": 2701,
      "ख़ुद": 2702,
      "लीवुड": 2703,
      "रिए": 2704,
      "पेट": 2705,
      "डियो": 2706,
      "्रो": 2707,
      "प्रशासन": 2708,
      "सामान": 2709,
      "उपलब्": 2710,
      "दिखाई": 2711,
      "चान": 2712,
      "ज़न": 2713,
      "शनिवार": 2714,
      "थौ": 2715,
      "पड़े": 2716,
      "यदि": 2717,
      "ज़मी": 2718,
      "हुल": 2719,
      "युव": 2720,
      "नेपाल": 2721,
      "मार्च": 2722,
      "प्प": 2723,
      "महिलाओं": 2724,
      "आतंकवाद": 2725,
      "उधर": 2726,
      "बच": 2727,
      "भाई": 2728,
      "ढ़ा": 2729,
      "फ़ाइन": 2730,
      "बदला": 2731,
      "हम्मद": 2732,
      "इतिहा": 2733,
      "यहां": 2734,
      "वाइ": 2735,
      "विपक्ष": 2736,
      "मैन": 2737,
      "क़ात": 2738,
      "आती": 2739,
      "प्रखंड": 2740,
      "मुलाक़ात": 2741,
      "इराक़": 2742,
      "इतिहास": 2743,
      "तम": 2744,
      "विदेशी": 2745,
      "हफ़्त": 2746,
      "्ति": 2747,
      "शनल": 2748,
      "बांग्लादेश": 2749,
      "पश्चिमी": 2750,
      "स्कोर": 2751,
      "अप्रैल": 2752,
      "यी": 2753,
      "िति": 2754,
      "17": 2755,
      "श्त": 2756,
      "ूब": 2757,
      "बाल": 2758,
      "सियों": 2759,
      "मिलने": 2760,
      "बनाकर": 2761,
      "च्च": 2762,
      "स्वीकार": 2763,
      "भिन्न": 2764,
      "25": 2765,
      "शेयर": 2766,
      "उम": 2767,
      "प्रिय": 2768,
      "बच्चे": 2769,
      "जैसी": 2770,
      "रविवार": 2771,
      "जार": 2772,
      "ेंद्र": 2773,
      "ुरी": 2774,
      "पाया": 2775,
      "पिथौ": 2776,
      "खिलाड़ियों": 2777,
      "आदि": 2778,
      "तलब": 2779,
      "हमारी": 2780,
      "बोर्ड": 2781,
      "नागरिकों": 2782,
      "er": 2783,
      "आड": 2784,
      "आस": 2785,
      "कारा": 2786,
      "पीए": 2787,
      "इतना": 2788,
      "क्रे": 2789,
      "सों": 2790,
      "याँ": 2791,
      "एटा": 2792,
      "मुस्": 2793,
      "उसने": 2794,
      "निकल": 2795,
      "मामला": 2796,
      "अंतरि": 2797,
      "वकी": 2798,
      "भाषण": 2799,
      "जिससे": 2800,
      "मैचों": 2801,
      "फ़ाइनल": 2802,
      "गन": 2803,
      "ह्": 2804,
      "मेंट": 2805,
      "प्रस्ता": 2806,
      "परी": 2807,
      "लिख": 2808,
      "गुजरात": 2809,
      "नियंत्रण": 2810,
      "थली": 2811,
      "नवं": 2812,
      "हरी": 2813,
      "सलाह": 2814,
      "फ़ैसले": 2815,
      "इस्ती": 2816,
      "सैंण": 2817,
      "इनमें": 2818,
      "उल्लेखनीय": 2819,
      "आडवाणी": 2820,
      "नवंबर": 2821,
      "चंद्र": 2822,
      "मियों": 2823,
      "चले": 2824,
      "वृ": 2825,
      "ुक": 2826,
      "राली": 2827,
      "प्रकार": 2828,
      "विषा": 2829,
      "दावा": 2830,
      "ग़ौर": 2831,
      "बल्लेबाज़ी": 2832,
      "सहम": 2833,
      "तिम": 2834,
      "आपके": 2835,
      "संग्र": 2836,
      "जताई": 2837,
      "महत्वपूर्ण": 2838,
      "गै": 2839,
      "मगर": 2840,
      "काली": 2841,
      "ज़रिए": 2842,
      "अने": 2843,
      "जमा": 2844,
      "त्या": 2845,
      "काला": 2846,
      "स्वात": 2847,
      "ोलीहाट": 2848,
      "गंगोलीहाट": 2849,
      "पिथौरागढ": 2850,
      "मानना": 2851,
      "जून": 2852,
      "रानीखेत": 2853,
      "छिबराम": 2854,
      "छिबरामऊ": 2855,
      "शक": 2856,
      "प्रभा": 2857,
      "साइ": 2858,
      "विस्": 2859,
      "मोर्": 2860,
      "इमार": 2861,
      "बटा": 2862,
      "श्या": 2863,
      "तें": 2864,
      "ट्": 2865,
      "मना": 2866,
      "रण": 2867,
      "लालू": 2868,
      "वाह": 2869,
      "चुनौ": 2870,
      "न्याया": 2871,
      "दलों": 2872,
      "रहते": 2873,
      "मोहम्मद": 2874,
      "युवा": 2875,
      "सम्मान": 2876,
      "कलाकार": 2877,
      "मामलों": 2878,
      "बेहतर": 2879,
      "ल्में": 2880,
      "195": 2881,
      "ूँ": 2882,
      "हाई": 2883,
      "स्टार": 2884,
      "थलीसैंण": 2885,
      "on": 2886,
      "करवा": 2887,
      "तीस": 2888,
      "समिति": 2889,
      "सुधार": 2890,
      "रायगढ": 2891,
      "अंतिम": 2892,
      "कौन": 2893,
      "विषाणु": 2894,
      "in": 2895,
      "रें": 2896,
      "शक्ति": 2897,
      "राहुल": 2898,
      "इनकार": 2899,
      "विश्वास": 2900,
      "अख़": 2901,
      "सुल": 2902,
      "चुनावी": 2903,
      "प्ता": 2904,
      "सिलसि": 2905,
      "आलो": 2906,
      "सल्": 2907,
      "लिम": 2908,
      "डॉक्टर": 2909,
      "विद्यालय": 2910,
      "अतर": 2911,
      "वनी": 2912,
      "टिया": 2913,
      "नपुर": 2914,
      "बं": 2915,
      "उससे": 2916,
      "धमाके": 2917,
      "रुपए": 2918,
      "मता": 2919,
      "लना": 2920,
      "सज़ा": 2921,
      "जिसे": 2922,
      "दूरी": 2923,
      "छोटे": 2924,
      "स्थापित": 2925,
      "अमेरि": 2926,
      "खग": 2927,
      "नवा": 2928,
      "हवाई": 2929,
      "ख़राब": 2930,
      "पुन": 2931,
      "तस्वी": 2932,
      "धित": 2933,
      "लियों": 2934,
      "सहायता": 2935,
      "ग़ौरतलब": 2936,
      "मांग": 2937,
      "आईसी": 2938,
      "साद": 2939,
      "मुताबिक़": 2940,
      "गेंदबा": 2941,
      "फ़ोन": 2942,
      "कित": 2943,
      "टाइ": 2944,
      "जॉन": 2945,
      "मायावती": 2946,
      "बजट": 2947,
      "शर्मा": 2948,
      "div": 2949,
      "अस्प": 2950,
      "ीप": 2951,
      "सैनिकों": 2952,
      "उपलब्ध": 2953,
      "बत": 2954,
      "ज्ञान": 2955,
      "अतरौली": 2956,
      "खगड़िया": 2957,
      "असल": 2958,
      "खान": 2959,
      "घंटे": 2960,
      "जम्": 2961,
      "नाटक": 2962,
      "निशाना": 2963,
      "गल": 2964,
      "रीज़": 2965,
      "an": 2966,
      "दोष": 2967,
      "यूपीए": 2968,
      "अनेक": 2969,
      "दबाव": 2970,
      "प्रयोग": 2971,
      "शील": 2972,
      "स्वास्थ": 2973,
      "सीटें": 2974,
      "बावजूद": 2975,
      "धोनी": 2976,
      "ारोह": 2977,
      "हमे": 2978,
      "कृष्ण": 2979,
      "बलों": 2980,
      "लकर": 2981,
      "पुष्टि": 2982,
      "बेरी": 2983,
      "अफ": 2984,
      "उसी": 2985,
      "नेशनल": 2986,
      "त्रि": 2987,
      "जनरल": 2988,
      "en": 2989,
      "कड़ी": 2990,
      "मुद्दा": 2991,
      "क़ीमत": 2992,
      "रवा": 2993,
      "मानव": 2994,
      "क्रा": 2995,
      "टों": 2996,
      "रक्षा": 2997,
      "पत्रिका": 2998,
      "भगवान": 2999,
      "आदेश": 3000,
      "मात्र": 3001,
      "विभाग": 3002,
      "चाई": 3003,
      "कुर": 3004,
      "काउ": 3005,
      "अब्": 3006,
      "चौबटा": 3007,
      "जुड़े": 3008,
      "चौबटाखाल": 3009,
      "कवि": 3010,
      "ारि": 3011,
      "निजी": 3012,
      "सर्व": 3013,
      "साहित्य": 3014,
      "सैन्य": 3015,
      "दृ": 3016,
      "उत्तरी": 3017,
      "बॉलीवुड": 3018,
      "सुना": 3019,
      "दूसरा": 3020,
      "स्कूल": 3021,
      "टॉ": 3022,
      "हित": 3023,
      "साफ़": 3024,
      "कर्म": 3025,
      "सड़क": 3026,
      "मुस्लिम": 3027,
      "हमेशा": 3028,
      "थराली": 3029,
      "पल": 3030,
      "लीग": 3031,
      "होकर": 3032,
      "पूछा": 3033,
      "विस्फो": 3034,
      "जम्मू": 3035,
      "जग": 3036,
      "ट्व": 3037,
      "असम": 3038,
      "जहा": 3039,
      "फर": 3040,
      "िन": 3041,
      "तेल": 3042,
      "हिमा": 3043,
      "आवासीय": 3044,
      "स्वास्थ्य": 3045,
      "आद": 3046,
      "मन्": 3047,
      "क्के": 3048,
      "निकाल": 3049,
      "निर्देशक": 3050,
      "२००": 3051,
      "किंग": 3052,
      "समुद्र": 3053,
      "शब्द": 3054,
      "प्रतियोग": 3055,
      "बेरीनाग": 3056,
      "्यार": 3057,
      "ज़े": 3058,
      "स्तु": 3059,
      "बदलाव": 3060,
      "आत्म": 3061,
      "ट्टी": 3062,
      "तला": 3063,
      "हता": 3064,
      "राज्यों": 3065,
      "विभिन्न": 3066,
      "समुदाय": 3067,
      "ज़मीन": 3068,
      "वानी": 3069,
      "तेज़": 3070,
      "टेली": 3071,
      "नाराज़": 3072,
      "त्ति": 3073,
      "वारी": 3074,
      "निर्माता": 3075,
      "प्रस्ताव": 3076,
      "अस्पताल": 3077,
      "मरा": 3078,
      "उनमें": 3079,
      "फ़िल्में": 3080,
      "्योग": 3081,
      "उम्र": 3082,
      "अति": 3083,
      "टने": 3084,
      "राहत": 3085,
      "प्रसाद": 3086,
      "लागू": 3087,
      "हाउस": 3088,
      "जेल": 3089,
      "न्याय": 3090,
      "मुसलमानों": 3091,
      "मक": 3092,
      "यण": 3093,
      "सेवा": 3094,
      "तान": 3095,
      "मिन": 3096,
      "उद्योग": 3097,
      "ूम": 3098,
      "समे": 3099,
      "जैसा": 3100,
      "हफ़्ते": 3101,
      "अख़बार": 3102,
      "बसा": 3103,
      "तानी": 3104,
      "संस्": 3105,
      "स्टर": 3106,
      "द्वीप": 3107,
      "अस": 3108,
      "कथ": 3109,
      "सोनिया": 3110,
      "मतदाता": 3111,
      "टिप्प": 3112,
      "महसू": 3113,
      "एयर": 3114,
      "ताब": 3115,
      "दीन": 3116,
      "अफ़्रीका": 3117,
      "जिनमें": 3118,
      "धमाकों": 3119,
      "प्रतियोगिता": 3120,
      "छु": 3121,
      "पथ": 3122,
      "बजे": 3123,
      "सिरीज़": 3124,
      "कमांड": 3125,
      "ेंट": 3126,
      "क़सान": 3127,
      "शादी": 3128,
      "बनने": 3129,
      "नुक़सान": 3130,
      "मज़बू": 3131,
      "िरी": 3132,
      "न्यास": 3133,
      "सतपु": 3134,
      "१८": 3135,
      "समी": 3136,
      "प्रयास": 3137,
      "सदी": 3138,
      "र्च": 3139,
      "देर": 3140,
      "संभावना": 3141,
      "ंडी": 3142,
      "जनवरी": 3143,
      "देखी": 3144,
      "बाँ": 3145,
      "पैसा": 3146,
      "वाइरस": 3147,
      "ंती": 3148,
      "डन": 3149,
      "रचित": 3150,
      "पाई": 3151,
      "रीन": 3152,
      "इतनी": 3153,
      "मॉ": 3154,
      "राइड": 3155,
      "बिल्": 3156,
      "पूछ": 3157,
      "पहुँचे": 3158,
      "आनंद": 3159,
      "तन": 3160,
      "स्कर": 3161,
      "लिन": 3162,
      "क्सन": 3163,
      "विजय": 3164,
      "क्षेत्रों": 3165,
      "व्यक्त": 3166,
      "सतपुली": 3167,
      "२०": 3168,
      "लाइन": 3169,
      "मानते": 3170,
      "ग़लत": 3171,
      "भेज": 3172,
      "or": 3173,
      "आकर्": 3174,
      "वॉ": 3175,
      "2007": 3176,
      "जवादी": 3177,
      "ब्रितानी": 3178,
      "आव": 3179,
      "एक्स": 3180,
      "संबो": 3181,
      "्टर": 3182,
      "हिंदू": 3183,
      "चुनौती": 3184,
      "हॉ": 3185,
      "अनि": 3186,
      "बेल": 3187,
      "अनुभव": 3188,
      "यूरोपीय": 3189,
      "इंत": 3190,
      "बाह": 3191,
      "उसमें": 3192,
      "हराया": 3193,
      "ज्ञानिक": 3194,
      "शरीफ़": 3195,
      "ar": 3196,
      "करनी": 3197,
      "निपट": 3198,
      "मोदी": 3199,
      "प्राचीन": 3200,
      "उड़ी": 3201,
      "ट्रा": 3202,
      "कांडा": 3203,
      "रास्ते": 3204,
      "समाजवादी": 3205,
      "कार्यकर्ता": 3206,
      "ज़िम्मेदारी": 3207,
      "आंध्र": 3208,
      "प्रपात": 3209,
      "टोली": 3210,
      "गुरारू": 3211,
      "हज़ारों": 3212,
      "करीब": 3213,
      "26": 3214,
      "टकों": 3215,
      "तंत्र": 3216,
      "लिखा": 3217,
      "आपने": 3218,
      "वैज्ञानिक": 3219,
      "ज़रूर": 3220,
      "प्रयाग": 3221,
      "जल्द": 3222,
      "कता": 3223,
      "लक्ष्": 3224,
      "माइकल": 3225,
      "कना": 3226,
      "हरि": 3227,
      "१०": 3228,
      "वेस्ट": 3229,
      "चेता": 3230,
      "सूचना": 3231,
      "गोत्र": 3232,
      "चाहती": 3233,
      "ज़रूरी": 3234,
      "40": 3235,
      "राध": 3236,
      "स्वत": 3237,
      "इसरा": 3238,
      "प्रतिबंध": 3239,
      "शंका": 3240,
      "उड़ीसा": 3241,
      "गंगा": 3242,
      "झार": 3243,
      "वाग": 3244,
      "ल्प": 3245,
      "रीय": 3246,
      "खाना": 3247,
      "2004": 3248,
      "नोली": 3249,
      "शानदार": 3250,
      "आलोचना": 3251,
      "कठ": 3252,
      "पब्": 3253,
      "शव": 3254,
      "प्रशा": 3255,
      "लाह": 3256,
      "रिक": 3257,
      "डीडी": 3258,
      "सुरक्षित": 3259,
      "साबित": 3260,
      "टै": 3261,
      "नृत": 3262,
      "शू": 3263,
      "ियन": 3264,
      "मिता": 3265,
      "सुप्री": 3266,
      "सामना": 3267,
      "प्रकाशित": 3268,
      "कहती": 3269,
      "पहचान": 3270,
      "कर्ण": 3271,
      "जैक्सन": 3272,
      "डेमो": 3273,
      "सहयोग": 3274,
      "बेहद": 3275,
      "माओवादियों": 3276,
      "ंडे": 3277,
      "तोड़": 3278,
      "जोड़": 3279,
      "अच्छे": 3280,
      "सहवाग": 3281,
      "तनाव": 3282,
      "सप्ता": 3283,
      "ढ़ी": 3284,
      "पर्यटन": 3285,
      "पत्नी": 3286,
      "स्वतंत्र": 3287,
      "चू": 3288,
      "जापान": 3289,
      "टीटी": 3290,
      "हरु": 3291,
      "शिका": 3292,
      "पैके": 3293,
      "सुप्रीम": 3294,
      "देंगे": 3295,
      "संभव": 3296,
      "बैं": 3297,
      "वंश": 3298,
      "सीबी": 3299,
      "सुपर": 3300,
      "मुखर्जी": 3301,
      "लगाए": 3302,
      "सूर": 3303,
      "विश्वविद्यालय": 3304,
      "एमके": 3305,
      "इस्तीफ़ा": 3306,
      "अथ": 3307,
      "केत": 3308,
      "सेट": 3309,
      "अंदा": 3310,
      "ंज": 3311,
      "फ़्रा": 3312,
      "लगाने": 3313,
      "2008": 3314,
      "चाहे": 3315,
      "कंपनियों": 3316,
      "पड़ता": 3317,
      "सिलसिले": 3318,
      "चेतावनी": 3319,
      "II": 3320,
      "ेश": 3321,
      "बताते": 3322,
      "पार्क": 3323,
      "आशंका": 3324,
      "प्रक्रिया": 3325,
      "करि": 3326,
      "समू": 3327,
      "शिक्षा": 3328,
      "पैसे": 3329,
      "एलटीटी": 3330,
      "कथित": 3331,
      "पूर्वी": 3332,
      "कराने": 3333,
      "जाएँगे": 3334,
      "सफलता": 3335,
      "दाद": 3336,
      "स्त्र": 3337,
      "शाम": 3338,
      "डाल": 3339,
      "हूं": 3340,
      "छोटी": 3341,
      "व्यापार": 3342,
      "अंतरिक्ष": 3343,
      "तल": 3344,
      "भविष": 3345,
      "पुरं": 3346,
      "दरअसल": 3347,
      "घोषित": 3348,
      "मूर": 3349,
      "आवाज़": 3350,
      "आधारित": 3351,
      "भविष्य": 3352,
      "खड़े": 3353,
      "तारी": 3354,
      "नय": 3355,
      "लिय": 3356,
      "विध": 3357,
      "पाद": 3358,
      "रिंग": 3359,
      "वनडे": 3360,
      "आख़िरी": 3361,
      "ूरु": 3362,
      "०२": 3363,
      "्रें": 3364,
      "न्होंने": 3365,
      "जिसका": 3366,
      "तरफ़": 3367,
      "द्वाराहाट": 3368,
      "इमारत": 3369,
      "नृत्य": 3370,
      "डेमोक्रे": 3371,
      "एलटीटीई": 3372,
      "संभा": 3373,
      "नारायण": 3374,
      "युवराज": 3375,
      "वकील": 3376,
      "70": 3377,
      "दें": 3378,
      "मति": 3379,
      "मुख्यालय": 3380,
      "सल्ट": 3381,
      "पैकेज": 3382,
      "24": 3383,
      "st": 3384,
      "उ०": 3385,
      "खूब": 3386,
      "दोबारा": 3387,
      "लौट": 3388,
      "सारी": 3389,
      "रहता": 3390,
      "रिकॉ": 3391,
      "चिद": 3392,
      "हमलावर": 3393,
      "आयोजन": 3394,
      "आयोजित": 3395,
      "लहाल": 3396,
      "द्द": 3397,
      "वायु": 3398,
      "जिक": 3399,
      "सीपी": 3400,
      "न्द": 3401,
      "न्ना": 3402,
      "दौरे": 3403,
      "ट्रो": 3404,
      "लाहौर": 3405,
      "चिदंबर": 3406,
      "अक्": 3407,
      "दस्त": 3408,
      "दिशा": 3409,
      "दिग्": 3410,
      "डीह": 3411,
      "धार्": 3412,
      "समझौते": 3413,
      "ताज़ा": 3414,
      "सामा": 3415,
      "सिटी": 3416,
      "उठाए": 3417,
      "महीनों": 3418,
      "रॉय": 3419,
      "छात्रों": 3420,
      "डीडीहाट": 3421,
      "उत": 3422,
      "जर्म": 3423,
      "सच": 3424,
      "निधि": 3425,
      "दास": 3426,
      "ंदगी": 3427,
      "बुश": 3428,
      "वर्षीय": 3429,
      "कृतिक": 3430,
      "मज़बूत": 3431,
      "निपटने": 3432,
      "खैर": 3433,
      "रास्ता": 3434,
      "स्पे": 3435,
      "साँ": 3436,
      "दिसं": 3437,
      "तीश": 3438,
      "सूर्य": 3439,
      "ज़िम्मेदार": 3440,
      "बिल्कुल": 3441,
      "ँकु": 3442,
      "उपा": 3443,
      "कही": 3444,
      "षद": 3445,
      "०३": 3446,
      "कोश्या": 3447,
      "मेर": 3448,
      "जोशी": 3449,
      "महान": 3450,
      "इंडिया": 3451,
      "संग्रह": 3452,
      "पब्लिक": 3453,
      "जर्मनी": 3454,
      "ँकुटोली": 3455,
      "कोश्याँकुटोली": 3456,
      "लगत": 3457,
      "रासत": 3458,
      "प्रण": 3459,
      "सिंग": 3460,
      "समारोह": 3461,
      "प्राप्त": 3462,
      "पार्टियों": 3463,
      "मन्दिर": 3464,
      "समेत": 3465,
      "चिदंबरम": 3466,
      "गम": 3467,
      "जंग": 3468,
      "भ्र": 3469,
      "देता": 3470,
      "सिर": 3471,
      "गरु": 3472,
      "लोकप्रिय": 3473,
      "तेंदु": 3474,
      "कर्णप्रयाग": 3475,
      "सप्ताह": 3476,
      "खै": 3477,
      "सागर": 3478,
      "हिर": 3479,
      "संजय": 3480,
      "गईं": 3481,
      "विरोधी": 3482,
      "लेखक": 3483,
      "फ़्लू": 3484,
      "काउं": 3485,
      "22": 3486,
      "पॉ": 3487,
      "भीड़": 3488,
      "चार्": 3489,
      "दिसंबर": 3490,
      "ुष": 3491,
      "नेर": 3492,
      "र्व": 3493,
      "लाने": 3494,
      "पाडु": 3495,
      "अमृत": 3496,
      "प्रतिक्रिया": 3497,
      "रोकने": 3498,
      "दुर्घटना": 3499,
      "समझौता": 3500,
      "गोलीबारी": 3501,
      "हौल": 3502,
      "अड्ड": 3503,
      "उठ": 3504,
      "मल्": 3505,
      "गाँधी": 3506,
      "न्स": 3507,
      "न्टी": 3508,
      "सिख": 3509,
      "हिस्से": 3510,
      "सुनवाई": 3511,
      "महसूस": 3512,
      "विज़न": 3513,
      "तेज़ी": 3514,
      "ख़तरा": 3515,
      "बच्चन": 3516,
      "करेगा": 3517,
      "करेगी": 3518,
      "ग्रे": 3519,
      "किताब": 3520,
      "बान": 3521,
      "ढ़े": 3522,
      "संकेत": 3523,
      "्यास": 3524,
      "बनाई": 3525,
      "प्रेस": 3526,
      "रैली": 3527,
      "रोज़गार": 3528,
      "भनोली": 3529,
      "मिलता": 3530,
      "शिकार": 3531,
      "समाप्त": 3532,
      "भेड़": 3533,
      "ज्यादा": 3534,
      "बहा": 3535,
      "व्": 3536,
      "जिन्हें": 3537,
      "विष्": 3538,
      "लोहा": 3539,
      "मिर": 3540,
      "नौकरी": 3541,
      "जीतने": 3542,
      "झारखंड": 3543,
      "23": 3544,
      "इमाम": 3545,
      "वही": 3546,
      "लाइ": 3547,
      "मिलकर": 3548,
      "टिप्पणी": 3549,
      "चली": 3550,
      "र्ग": 3551,
      "मौसम": 3552,
      "गैरसैण": 3553,
      "शिकायत": 3554,
      "समूह": 3555,
      "शतक": 3556,
      "हरे": 3557,
      "ताज": 3558,
      "रहती": 3559,
      "रहमान": 3560,
      "टिल": 3561,
      "जल्दी": 3562,
      "धार्मिक": 3563,
      "उच्च": 3564,
      "दरा": 3565,
      "र्या": 3566,
      "माहौल": 3567,
      "मारी": 3568,
      "योगी": 3569,
      "श्चित": 3570,
      "मनो": 3571,
      "तरफ": 3572,
      "शहरों": 3573,
      "आवश्य": 3574,
      "कत": 3575,
      "सका": 3576,
      "्रि": 3577,
      "गाने": 3578,
      "जिद": 3579,
      "मुठ": 3580,
      "हमारा": 3581,
      "चीज़": 3582,
      "शीर्ष": 3583,
      "घोडा": 3584,
      "हाथों": 3585,
      "लेना": 3586,
      "गाह": 3587,
      "प्रदर्श": 3588,
      "देवी": 3589,
      "संस्थान": 3590,
      "सुविधा": 3591,
      "क्री": 3592,
      "बातें": 3593,
      "जिसकी": 3594,
      "महासचिव": 3595,
      "धरम": 3596,
      "पर्यटकों": 3597,
      "पड़ी": 3598,
      "वादा": 3599,
      "साय": 3600,
      "क्ट": 3601,
      "जाट": 3602,
      "व्यू": 3603,
      "रखी": 3604,
      "ख़बरें": 3605,
      "परीक्षण": 3606,
      "आसि": 3607,
      "उतर": 3608,
      "दशक": 3609,
      "नंबर": 3610,
      "वहां": 3611,
      "ताप": 3612,
      "संदेश": 3613,
      "बेहत": 3614,
      "मतलब": 3615,
      "रामपुर": 3616,
      "धीरे": 3617,
      "अगस्त": 3618,
      "अंदर": 3619,
      "खड़ा": 3620,
      "मस्": 3621,
      "हरिया": 3622,
      "िंग": 3623,
      "घरघोडा": 3624,
      "एजेंसियों": 3625,
      "27": 3626,
      "अक्ष": 3627,
      "र्द": 3628,
      "वासी": 3629,
      "गोल": 3630,
      "मौजू": 3631,
      "सार्व": 3632,
      "परिषद": 3633,
      "उपन्यास": 3634,
      "डियम": 3635,
      "अलीगंज": 3636,
      "अभ्यास": 3637,
      "मोर्चे": 3638,
      "अमिता": 3639,
      "पृ": 3640,
      "बंगल": 3641,
      "जाकर": 3642,
      "चौखु": 3643,
      "ज़रदारी": 3644,
      "सदस्यों": 3645,
      "लक्ष्य": 3646,
      "सहमति": 3647,
      "उन्": 3648,
      "बला": 3649,
      "हवा": 3650,
      "सिने": 3651,
      "वीर": 3652,
      "2006": 3653,
      "पर्या": 3654,
      "तैना": 3655,
      "संबोधित": 3656,
      "बैंकों": 3657,
      "रिकॉर्ड": 3658,
      "इच्": 3659,
      "ंदो": 3660,
      "दोस्त": 3661,
      "सूरत": 3662,
      "अनुमति": 3663,
      "मुक़ाबला": 3664,
      "मौजूदा": 3665,
      "झील": 3666,
      "स्यू": 3667,
      "ूत": 3668,
      "त्तर": 3669,
      "निभा": 3670,
      "रिपब्लिक": 3671,
      "शांत": 3672,
      "डेवि": 3673,
      "संवाददाताओं": 3674,
      "पकड़": 3675,
      "आईसीसी": 3676,
      "अब्दु": 3677,
      "चौखुटिया": 3678,
      "मश": 3679,
      "राह": 3680,
      "रिश्त": 3681,
      "कृत": 3682,
      "लियाँ": 3683,
      "स्वाइन": 3684,
      "तमिलनाडु": 3685,
      "दिलच": 3686,
      "वापसी": 3687,
      "इतने": 3688,
      "छवि": 3689,
      "ौती": 3690,
      "प्रसार": 3691,
      "जाद": 3692,
      "फ़ायदा": 3693,
      "मुठभेड़": 3694,
      "भरो": 3695,
      "लेते": 3696,
      "क्लो": 3697,
      "द्धा": 3698,
      "एँगे": 3699,
      "ग्रह": 3700,
      "गठन": 3701,
      "झु": 3702,
      "दत्त": 3703,
      "प०": 3704,
      "नीला": 3705,
      "मेल": 3706,
      "स्ट्री": 3707,
      "जलप्रपात": 3708,
      "चोट": 3709,
      "टिकट": 3710,
      "हिंदु": 3711,
      "आदमी": 3712,
      "कब": 3713,
      "कां": 3714,
      "काफी": 3715,
      "राशि": 3716,
      "विज्ञान": 3717,
      "खेले": 3718,
      "लंबी": 3719,
      "जयगढ": 3720,
      "धीश": 3721,
      "इंडियन": 3722,
      "गरुङ": 3723,
      "बंगलौर": 3724,
      "21": 3725,
      "मास": 3726,
      "भारती": 3727,
      "दिव": 3728,
      "मीण": 3729,
      "मनोर": 3730,
      "दक्षिणी": 3731,
      "पुराने": 3732,
      "मुक़ाबले": 3733,
      "विष्णु": 3734,
      "बेहतरीन": 3735,
      "इग": 3736,
      "इन्हें": 3737,
      "घे": 3738,
      "र्जा": 3739,
      "पुस्त": 3740,
      "अमर": 3741,
      "वरण": 3742,
      "सारे": 3743,
      "जुलाई": 3744,
      "श्रेष्ठ": 3745,
      "सामाजिक": 3746,
      "धरमजयगढ": 3747,
      "29": 3748,
      "एड": 3749,
      "जनिक": 3750,
      "द्री": 3751,
      "लिंट": 3752,
      "पाने": 3753,
      "शाली": 3754,
      "खाने": 3755,
      "ज़िंदगी": 3756,
      "लखन": 3757,
      "साहब": 3758,
      "शंकर": 3759,
      "ग्रामीण": 3760,
      "वर्तमान": 3761,
      "कालीन": 3762,
      "सार्वजनिक": 3763,
      "अम्": 3764,
      "एच": 3765,
      "ऑस्कर": 3766,
      "जहां": 3767,
      "्ती": 3768,
      "लेज": 3769,
      "स्टी": 3770,
      "सीआई": 3771,
      "यूनि": 3772,
      "भूत": 3773,
      "गिरा": 3774,
      "प्ले": 3775,
      "१९६": 3776,
      "बल्लेबाज़": 3777,
      "अफ्रीका": 3778,
      "इमामगंज": 3779,
      "अमिताभ": 3780,
      "टर्स": 3781,
      "प्यार": 3782,
      "गाड़ी": 3783,
      "स्लम": 3784,
      "विस्त": 3785,
      "आपका": 3786,
      "पहाड़ी": 3787,
      "अमेरिका": 3788,
      "इसराइल": 3789,
      "रिपब्लिकन": 3790,
      "इगलास": 3791,
      "कड़ों": 3792,
      "जौ": 3793,
      "द्रा": 3794,
      "यारी": 3795,
      "वेज़": 3796,
      "टेड": 3797,
      "le": 3798,
      "कड़े": 3799,
      "यॉ": 3800,
      "नामा": 3801,
      "प्रदाय": 3802,
      "मिसा": 3803,
      "बिग": 3804,
      "रिज़": 3805,
      "वीडियो": 3806,
      "दार्": 3807,
      "लड़ने": 3808,
      "तेंदुलकर": 3809,
      "th": 3810,
      "इन्": 3811,
      "बरी": 3812,
      "सप": 3813,
      "प्रगति": 3814,
      "माबाद": 3815,
      "हिरासत": 3816,
      "द्वानी": 3817,
      "चिंत": 3818,
      "दौरा": 3819,
      "बोल": 3820,
      "उपकरण": 3821,
      "इंडी": 3822,
      "नुक": 3823,
      "इंटरव्यू": 3824,
      "तुर": 3825,
      "पण": 3826,
      "भजन": 3827,
      "्न": 3828,
      "मां": 3829,
      "लीज़": 3830,
      "निवेश": 3831,
      "मानवा": 3832,
      "खेलने": 3833,
      "समुद्री": 3834,
      "विस्फोट": 3835,
      "आंदो": 3836,
      "इले": 3837,
      "ग्री": 3838,
      "केरल": 3839,
      "टेल": 3840,
      "त्कार": 3841,
      "ग़ैर": 3842,
      "लंबे": 3843,
      "डॉग": 3844,
      "भेद": 3845,
      "अध्ययन": 3846,
      "गेंदों": 3847,
      "हल्द्वानी": 3848,
      "विपक्षी": 3849,
      "शूटिंग": 3850,
      "थर": 3851,
      "देकर": 3852,
      "ज़ु": 3853,
      "भीतर": 3854,
      "होनी": 3855,
      "हुसैन": 3856,
      "वारा": 3857,
      "2005": 3858,
      "सितंबर": 3859,
      "गतिविध": 3860,
      "सीबीआई": 3861,
      "मस्जिद": 3862,
      "60": 3863,
      "शै": 3864,
      "र्ज": 3865,
      "सालों": 3866,
      "पांच": 3867,
      "मुक्त": 3868,
      "ंगो": 3869,
      "रिक्त": 3870,
      "क़्त": 3871,
      "शाल": 3872,
      "टिस": 3873,
      "तुलना": 3874,
      "पहुँचने": 3875,
      "विशेषज्ञ": 3876,
      "लोहाघाट": 3877,
      "अंक": 3878,
      "तट": 3879,
      "नीतीश": 3880,
      "लिका": 3881,
      "कारों": 3882,
      "ंगु": 3883,
      "क्षक": 3884,
      "पुरुष": 3885,
      "ख़री": 3886,
      "मैने": 3887,
      "डीएमके": 3888,
      "आना": 3889,
      "एंड": 3890,
      "कपूर": 3891,
      "घन": 3892,
      "दुर": 3893,
      "पठ": 3894,
      "भड़": 3895,
      "जिन्होंने": 3896,
      "ल्ल": 3897,
      "संपर्": 3898,
      "हरण": 3899,
      "मंत्रि": 3900,
      "जनक": 3901,
      "कर्नाटक": 3902,
      "ग़रीब": 3903,
      "स्वामी": 3904,
      "अज": 3905,
      "छू": 3906,
      "जर्स": 3907,
      "नाइट": 3908,
      "बाई": 3909,
      "फ़ते": 3910,
      "मुना": 3911,
      "बेटी": 3912,
      "नौकर": 3913,
      "ठाकरे": 3914,
      "किरौली": 3915,
      "खैरा": 3916,
      "मानवाधिकार": 3917,
      "संपर्क": 3918,
      "ढी": 3919,
      "प्ट": 3920,
      "ाचार": 3921,
      "ूनी": 3922,
      "ूरी": 3923,
      "प्रत्य": 3924,
      "हालत": 3925,
      "सीधे": 3926,
      "कुंड": 3927,
      "तिक": 3928,
      "बिज": 3929,
      "शाहरु": 3930,
      "मेन": 3931,
      "194": 3932,
      "णाम": 3933,
      "कामया": 3934,
      "अनुमान": 3935,
      "विश्ले": 3936,
      "लखनऊ": 3937,
      "स्लमडॉग": 3938,
      "मिसाइल": 3939,
      "आंदोलन": 3940,
      "ंभ": 3941,
      "पत": 3942,
      "पुरी": 3943,
      "म्प": 3944,
      "द्दीन": 3945,
      "छोटा": 3946,
      "तिहासिक": 3947,
      "गौतम": 3948,
      "अतिरिक्त": 3949,
      "करियर": 3950,
      "सिनेमा": 3951,
      "यॉर्क": 3952,
      "आमिर": 3953,
      "मठ": 3954,
      "वक़्त": 3955,
      "बाजार": 3956,
      "कारो": 3957,
      "चलते": 3958,
      "दलित": 3959,
      "जवान": 3960,
      "फुट": 3961,
      "कं": 3962,
      "खला": 3963,
      "थम": 3964,
      "मरे": 3965,
      "कितना": 3966,
      "नाक": 3967,
      "सकर्": 3968,
      "मुद्दों": 3969,
      "सामान्य": 3970,
      "दोषी": 3971,
      "क्यू": 3972,
      "गाव": 3973,
      "स्पी": 3974,
      "त्त्व": 3975,
      "निरा": 3976,
      "बेटे": 3977,
      "मनगर": 3978,
      "पोखरी": 3979,
      "स्वागत": 3980,
      "जवानों": 3981,
      "अवसर": 3982,
      "मल्ला": 3983,
      "सत्र": 3984,
      "किंग्": 3985,
      "सिया": 3986,
      "जीव": 3987,
      "पुलिसकर्": 3988,
      "ज़्यादातर": 3989,
      "ट्रेन": 3990,
      "ऐतिहासिक": 3991,
      "लित": 3992,
      "सव": 3993,
      "िए": 3994,
      "तिरवा": 3995,
      "्वी": 3996,
      "मेश्वर": 3997,
      "परिणाम": 3998,
      "अंग्रेजी": 3999,
      "तलाश": 4000,
      "टेलीविज़न": 4001,
      "फ़तेहाबाद": 4002,
      "हट": 4003,
      "हवे": 4004,
      "ुप": 4005,
      "वास्त": 4006,
      "मुझ": 4007,
      "चारियों": 4008,
      "हूर": 4009,
      "कटौती": 4010,
      "हालात": 4011,
      "अहमद": 4012,
      "शर्त": 4013,
      "इस्लामाबाद": 4014,
      "सर्वश्रेष्ठ": 4015,
      "इंडीज़": 4016,
      "डू": 4017,
      "०I": 4018,
      "बाइल": 4019,
      "तीनों": 4020,
      "क़े": 4021,
      "रहेगा": 4022,
      "मंत्रियों": 4023,
      "मिलती": 4024,
      "महल": 4025,
      "शोक": 4026,
      "बंदी": 4027,
      "नवाज़": 4028,
      "कर्मचारियों": 4029,
      "नुकसान": 4030,
      "अक्त": 4031,
      "घूम": 4032,
      "चंद": 4033,
      "तू": 4034,
      "नाइ": 4035,
      "वाहि": 4036,
      "पाटी": 4037,
      "मौक़ा": 4038,
      "कराया": 4039,
      "एनडी": 4040,
      "अहमदी": 4041,
      "आज़ा": 4042,
      "विन": 4043,
      "निश्चित": 4044,
      "तेह": 4045,
      "भाना": 4046,
      "मोबाइल": 4047,
      "अधिकतर": 4048,
      "न्यायाधीश": 4049,
      "मिनट": 4050,
      "ठे": 4051,
      "तभी": 4052,
      "तत्": 4053,
      "तल्ला": 4054,
      "पढ़": 4055,
      "शौ": 4056,
      "जानी": 4057,
      "मील": 4058,
      "वीन": 4059,
      "चलने": 4060,
      "रखते": 4061,
      "क़ायदा": 4062,
      "100": 4063,
      "पें": 4064,
      "सन्": 4065,
      "हरभजन": 4066,
      "निर्ण": 4067,
      "2002": 4068,
      "वैश्": 4069,
      "इटली": 4070,
      "डेमोक्रेटिक": 4071,
      "भरोसा": 4072,
      "अक्तू": 4073,
      "आसान": 4074,
      "उंड": 4075,
      "गभाना": 4076,
      "पों": 4077,
      "वां": 4078,
      "देती": 4079,
      "पुल": 4080,
      "रूस": 4081,
      "घाती": 4082,
      "जगहों": 4083,
      "घटनाओं": 4084,
      "विद्रोही": 4085,
      "आत्मघाती": 4086,
      "तैनात": 4087,
      "शाहरुख़": 4088,
      "अक्तूबर": 4089,
      "कण्ड": 4090,
      "नक्": 4091,
      "व०": 4092,
      "वस्तु": 4093,
      "प्रवेश": 4094,
      "लाभ": 4095,
      "क्सा": 4096,
      "निदेश": 4097,
      "बीजे": 4098,
      "चारों": 4099,
      "जैन": 4100,
      "सकें": 4101,
      "बसपा": 4102,
      "पड़ेगा": 4103,
      "28": 4104,
      "टका": 4105,
      "सकी": 4106,
      "हैदरा": 4107,
      "्यता": 4108,
      "ंगी": 4109,
      "श्रीलंकाई": 4110,
      "शोध": 4111,
      "एनएस": 4112,
      "अर्ध": 4113,
      "फ़्रांस": 4114,
      "निर्णय": 4115,
      "नज़": 4116,
      "ब्रे": 4117,
      "रचना": 4118,
      "लगाँव": 4119,
      "ूद": 4120,
      "किस्": 4121,
      "विराम": 4122,
      "ऊँचाई": 4123,
      "वर्ण": 4124,
      "क्रिय": 4125,
      "उत्साह": 4126,
      "वैश्विक": 4127,
      "ंखला": 4128,
      "जम": 4129,
      "ढू": 4130,
      "धरी": 4131,
      "जाय": 4132,
      "क्षमता": 4133,
      "रिलीज़": 4134,
      "क़ै": 4135,
      "रेखा": 4136,
      "वार्ता": 4137,
      "देखना": 4138,
      "पहुं": 4139,
      "कॉलेज": 4140,
      "खुद": 4141,
      "बर्फ़": 4142,
      "दिखाया": 4143,
      "धमाका": 4144,
      "यात्री": 4145,
      "मिलेगा": 4146,
      "बचाने": 4147,
      "तस्वीर": 4148,
      "ट्वे": 4149,
      "उड़": 4150,
      "चम": 4151,
      "जगत": 4152,
      "संप": 4153,
      "जीता": 4154,
      "िक्र": 4155,
      "देखें": 4156,
      "परिवर्त": 4157,
      "थोड़ा": 4158,
      "नोकिया": 4159,
      "भेजा": 4160,
      "आरोपों": 4161,
      "उत्पा": 4162,
      "मशहूर": 4163,
      "al": 4164,
      "आश्": 4165,
      "कॊ": 4166,
      "षि": 4167,
      "क्कर": 4168,
      "क्सि": 4169,
      "कर्ज़": 4170,
      "देखकर": 4171,
      "परिसर": 4172,
      "सहित": 4173,
      "ढ़ाई": 4174,
      "बसाइट": 4175,
      "ट्वेन्टी": 4176,
      "ंका": 4177,
      "नक्स": 4178,
      "बौ": 4179,
      "मुर": 4180,
      "गाना": 4181,
      "मानी": 4182,
      "सानी": 4183,
      "विलास": 4184,
      "भाष": 4185,
      "मिस": 4186,
      "मिया": 4187,
      "जनजाति": 4188,
      "न्यूयॉर्क": 4189,
      "संगठनों": 4190,
      "माओवादी": 4191,
      "गवर्": 4192,
      "नरे": 4193,
      "भौ": 4194,
      "महम": 4195,
      "क़द": 4196,
      "किनारे": 4197,
      "सुंदर": 4198,
      "बैठे": 4199,
      "बढ़ाने": 4200,
      "रणनीति": 4201,
      "मनोरंजन": 4202,
      "ज्य": 4203,
      "जंगल": 4204,
      "तृ": 4205,
      "द्यो": 4206,
      "मर्": 4207,
      "लेंगे": 4208,
      "प्रत्या": 4209,
      "वेबसाइट": 4210,
      "लगाव": 4211,
      "समर्थक": 4212,
      "खोज": 4213,
      "आतंकवादी": 4214,
      "अथवा": 4215,
      "मंत्रिमंडल": 4216,
      "खैरागढ़": 4217,
      "नार": 4218,
      "पटेल": 4219,
      "संदिग्": 4220,
      "अपराध": 4221,
      "कहलगाँव": 4222,
      "सबूत": 4223,
      "जुड़ी": 4224,
      "घरों": 4225,
      "सर्वे": 4226,
      "तैयारी": 4227,
      "कारोबार": 4228,
      "संदिग्ध": 4229,
      "35": 4230,
      "घरे": 4231,
      "लान": 4232,
      "फ़िया": 4233,
      "ियां": 4234,
      "शिवि": 4235,
      "कर्मियों": 4236,
      "सूत्र": 4237,
      "ब्दी": 4238,
      "यारपुर": 4239,
      "प्रेम": 4240,
      "्युनि": 4241,
      "नगला": 4242,
      "आसपास": 4243,
      "दवा": 4244,
      "लाया": 4245,
      "बाक़ी": 4246,
      "दीवार": 4247,
      "स्थानों": 4248,
      "समर्थकों": 4249,
      "विद्रोह": 4250,
      "सांसदों": 4251,
      "कारात्मक": 4252,
      "प्रदायिक": 4253,
      "किंग्स": 4254,
      "कड़ा": 4255,
      "गड": 4256,
      "धिक": 4257,
      "नियुक्त": 4258,
      "पाटिल": 4259,
      "शिक्षण": 4260,
      "त्सा": 4261,
      "लोकतंत्र": 4262,
      "जिनके": 4263,
      "लक्ष्मण": 4264,
      "भै": 4265,
      "भरा": 4266,
      "सफ़र": 4267,
      "ेक": 4268,
      "ित्व": 4269,
      "फ़ल": 4270,
      "क्शन": 4271,
      "उनको": 4272,
      "्याल": 4273,
      "चीनी": 4274,
      "नियाँ": 4275,
      "बढ़ती": 4276,
      "2003": 4277,
      "डुम": 4278,
      "कपकोट": 4279,
      "श्रेणी": 4280,
      "हथियारों": 4281,
      "बिजली": 4282,
      "उद्": 4283,
      "ऊर्जा": 4284,
      "ट्स": 4285,
      "तारा": 4286,
      "द्य": 4287,
      "शोर": 4288,
      "सारा": 4289,
      "रामनगर": 4290,
      "साढ़े": 4291,
      "कार्यालय": 4292,
      "म्बी": 4293,
      "रुख़": 4294,
      "ग़ल": 4295,
      "ग्वा": 4296,
      "अगली": 4297,
      "उम्मीदवारों": 4298,
      "पर्यटक": 4299,
      "उर्फ": 4300,
      "मतदाताओं": 4301,
      "स्पेन": 4302,
      "लिंटन": 4303,
      "पला": 4304,
      "बुरी": 4305,
      "ॉक": 4306,
      "नेजाद": 4307,
      "यात": 4308,
      "सेमी": 4309,
      "कोह": 4310,
      "मिथ": 4311,
      "बढ़त": 4312,
      "नामक": 4313,
      "अभिनय": 4314,
      "कार्यकाल": 4315,
      "ंत्रिक": 4316,
      "संबंधित": 4317,
      "कल्या": 4318,
      "न्यायालय": 4319,
      "अंदाज़": 4320,
      "अहमदीनेजाद": 4321,
      "80": 4322,
      "आय": 4323,
      "आज़": 4324,
      "दली": 4325,
      "फँ": 4326,
      "रखे": 4327,
      "हीरो": 4328,
      "जोड़ी": 4329,
      "इनके": 4330,
      "अधी": 4331,
      "खेला": 4332,
      "2001": 4333,
      "सहयोगी": 4334,
      "ऑस्ट्रेलियाई": 4335,
      "बाज़ारों": 4336,
      "हटाने": 4337,
      "जहाज़": 4338,
      "हरियाणा": 4339,
      "at": 4340,
      "कदम": 4341,
      "भले": 4342,
      "स्की": 4343,
      "प्रती": 4344,
      "राज़": 4345,
      "क्लिंटन": 4346,
      "निस": 4347,
      "खास": 4348,
      "मारा": 4349,
      "डाय": 4350,
      "चलता": 4351,
      "भाग्य": 4352,
      "जयपुर": 4353,
      "बर्फ": 4354,
      "हवेली": 4355,
      "निदेशक": 4356,
      "आकर": 4357,
      "रौ": 4358,
      "शपथ": 4359,
      "माता": 4360,
      "विशाल": 4361,
      "मुद्रा": 4362,
      "बिल": 4363,
      "बीस": 4364,
      "रहेगी": 4365,
      "कम्युनि": 4366,
      "उठाने": 4367,
      "पुरानी": 4368,
      "ख़बरों": 4369,
      "ंगुली": 4370,
      "कने": 4371,
      "ड्रा": 4372,
      "फ्त": 4373,
      "मला": 4374,
      "र्ना": 4375,
      "बाय": 4376,
      "सीया": 4377,
      "अनुर": 4378,
      "फ़ान": 4379,
      "संतु": 4380,
      "बीर": 4381,
      "तकनी": 4382,
      "2009": 4383,
      "प्राकृतिक": 4384,
      "खरसीया": 4385,
      "हौला": 4386,
      "आख़िर": 4387,
      "कितने": 4388,
      "टॉस": 4389,
      "तुरंत": 4390,
      "ंसी": 4391,
      "सक्रिय": 4392,
      "िश": 4393,
      "१५": 4394,
      "फ़ॉ": 4395,
      "हिसाब": 4396,
      "रेड": 4397,
      "सुफ़": 4398,
      "सनहौला": 4399,
      "चौधरी": 4400,
      "थोड़ी": 4401,
      "विकल्प": 4402,
      "आकर्ष": 4403,
      "कार्यकर्ताओं": 4404,
      "अमृतपुर": 4405,
      "गवर्नर": 4406,
      "अशोक": 4407,
      "१४": 4408,
      "काट": 4409,
      "राइ": 4410,
      "सेन": 4411,
      "कार्ड": 4412,
      "कहाँ": 4413,
      "चाँ": 4414,
      "शाही": 4415,
      "स्टा": 4416,
      "सोचा": 4417,
      "गिल": 4418,
      "रखना": 4419,
      "ज़रुर": 4420,
      "वेस्टइंडीज़": 4421,
      "औऔ": 4422,
      "ोध": 4423,
      "जांच": 4424,
      "इनका": 4425,
      "चिकि": 4426,
      "शिंग": 4427,
      "ज़ाहिर": 4428,
      "द्धि": 4429,
      "सांप्रदायिक": 4430,
      "ग्राम": 4431,
      "मुलायम": 4432,
      "रिश्ते": 4433,
      "es": 4434,
      "उतार": 4435,
      "कथा": 4436,
      "ख्य": 4437,
      "चका": 4438,
      "तमा": 4439,
      "ूक": 4440,
      "नाबाद": 4441,
      "प्रशं": 4442,
      "ड़ित": 4443,
      "ज़मान": 4444,
      "लियम": 4445,
      "जाम": 4446,
      "रिहा": 4447,
      "कहने": 4448,
      "त्मा": 4449,
      "2000": 4450,
      "गार्ड": 4451,
      "दर्शकों": 4452,
      "ब्राउन": 4453,
      "ारिज": 4454,
      "अक्षय": 4455,
      "पुस्तक": 4456,
      "उत्पादन": 4457,
      "is": 4458,
      "नॉ": 4459,
      "फ्रा": 4460,
      "फैल": 4461,
      "बहन": 4462,
      "भूल": 4463,
      "राजी": 4464,
      "ज़त": 4465,
      "दीप": 4466,
      "ख़्त": 4467,
      "योगदान": 4468,
      "सर्वो": 4469,
      "फ़िलहाल": 4470,
      "परिवर्तन": 4471,
      "कंध": 4472,
      "खड़": 4473,
      "शॉ": 4474,
      "हवाले": 4475,
      "राई": 4476,
      "नेयर": 4477,
      "गांगुली": 4478,
      "कारियों": 4479,
      "रहेंगे": 4480,
      "द्रवि": 4481,
      "कैबि": 4482,
      "सौं": 4483,
      "ंकिंग": 4484,
      "लाखों": 4485,
      "आँख": 4486,
      "एशियाई": 4487,
      "डल": 4488,
      "वली": 4489,
      "वाँ": 4490,
      "लियन": 4491,
      "निवास": 4492,
      "निंदा": 4493,
      "भीषण": 4494,
      "क़साब": 4495,
      "जनसंख्या": 4496,
      "समझा": 4497,
      "स्टेडियम": 4498,
      "पट्टी": 4499,
      "विकसित": 4500,
      "जॉर्ज": 4501,
      "भगवानपुर": 4502,
      "संस्कृति": 4503,
      "कमांडो": 4504,
      "हैदराबाद": 4505,
      "अह": 4506,
      "अलगाव": 4507,
      "फें": 4508,
      "लाना": 4509,
      "हीर": 4510,
      "म्बर": 4511,
      "1984": 4512,
      "सड़कों": 4513,
      "कितनी": 4514,
      "जगदी": 4515,
      "्रेंस": 4516,
      "खूबसूरत": 4517,
      "नीलामी": 4518,
      "विश्लेष": 4519,
      "सर्वेक्षण": 4520,
      "कल्याण": 4521,
      "नज": 4522,
      "शता": 4523,
      "सास": 4524,
      "तिब्": 4525,
      "पिछली": 4526,
      "महेंद्र": 4527,
      "जुड़ा": 4528,
      "जानते": 4529,
      "ंपरा": 4530,
      "बहस": 4531,
      "यात्रियों": 4532,
      "इंतज़ार": 4533,
      "इच्छा": 4534,
      "जगदीश": 4535,
      "ँगा": 4536,
      "सवार": 4537,
      "ौरा": 4538,
      "प्रदान": 4539,
      "करु": 4540,
      "बाकी": 4541,
      "विजे": 4542,
      "बारिश": 4543,
      "मोह": 4544,
      "सैकड़ों": 4545,
      "इलाके": 4546,
      "ग्रुप": 4547,
      "स्यूं": 4548,
      "दिवसीय": 4549,
      "घरेलू": 4550,
      "ंजी": 4551,
      "अट": 4552,
      "टान": 4553,
      "थल": 4554,
      "केन": 4555,
      "फ़ु": 4556,
      "मिलिय": 4557,
      "दाबाद": 4558,
      "नौसेना": 4559,
      "प्राथ": 4560,
      "तमिलों": 4561,
      "पटिया": 4562,
      "पूछता": 4563,
      "आवश्यकता": 4564,
      "मिलियनेयर": 4565,
      "ic": 4566,
      "ंटी": 4567,
      "गों": 4568,
      "काले": 4569,
      "देह": 4570,
      "परंपरा": 4571,
      "क्का": 4572,
      "निर": 4573,
      "दिमा": 4574,
      "संसदी": 4575,
      "दावे": 4576,
      "लगाई": 4577,
      "ंकन": 4578,
      "चौथे": 4579,
      "गणना": 4580,
      "संसदीय": 4581,
      "अस्त": 4582,
      "घटा": 4583,
      "मों": 4584,
      "यं": 4585,
      "लता": 4586,
      "सौर": 4587,
      "हॉल": 4588,
      "ैंड": 4589,
      "लेरी": 4590,
      "ंगों": 4591,
      "सोमेश्वर": 4592,
      "उपयोग": 4593,
      "1992": 4594,
      "उल्लं": 4595,
      "ार्थ": 4596,
      "शरीर": 4597,
      "प्रभाकर": 4598,
      "कठिन": 4599,
      "पठान": 4600,
      "द्रविड़": 4601,
      "म्यू": 4602,
      "काशी": 4603,
      "तादाद": 4604,
      "ज़िला": 4605,
      "तेलु": 4606,
      "संत": 4607,
      "क्रो": 4608,
      "पीली": 4609,
      "फिल्मों": 4610,
      "कोंच": 4611,
      "लैं": 4612,
      "बदले": 4613,
      "शरद": 4614,
      "परेशा": 4615,
      "फ़रवरी": 4616,
      "विषय": 4617,
      "नगरीय": 4618,
      "अम्ल": 4619,
      "चिंतित": 4620,
      "उल्लंघन": 4621,
      "ऑन": 4622,
      "कब्": 4623,
      "जर्": 4624,
      "बन्": 4625,
      "मजब": 4626,
      "ज़िर": 4627,
      "भीत": 4628,
      "पीटर": 4629,
      "उपनगरीय": 4630,
      "बचाव": 4631,
      "उर्दू": 4632,
      "सलाहकार": 4633,
      "तीसरी": 4634,
      "अक": 4635,
      "इंग": 4636,
      "घरा": 4637,
      "तरे": 4638,
      "परा": 4639,
      "यरिंग": 4640,
      "िल": 4641,
      "केन्द्र": 4642,
      "बाग": 4643,
      "साई": 4644,
      "मुका": 4645,
      "हिलेरी": 4646,
      "रहना": 4647,
      "तोली": 4648,
      "चालक": 4649,
      "चिका": 4650,
      "मौका": 4651,
      "बुल": 4652,
      "चौक": 4653,
      "द्वार": 4654,
      "ध्यक्ष": 4655,
      "क़ानूनी": 4656,
      "टूट": 4657,
      "बलात्कार": 4658,
      "विजेता": 4659,
      "am": 4660,
      "गपुर": 4661,
      "नम": 4662,
      "पॆ": 4663,
      "भट्ट": 4664,
      "मृ": 4665,
      "स्य": 4666,
      "ृंखला": 4667,
      "ॉर्ड": 4668,
      "ेंटी": 4669,
      "वाही": 4670,
      "माले": 4671,
      "हाथी": 4672,
      "क्सी": 4673,
      "जाघर": 4674,
      "तीर्थ": 4675,
      "मंज़": 4676,
      "पीठ": 4677,
      "दुकान": 4678,
      "आईएम": 4679,
      "जाएंगे": 4680,
      "परिद्ध": 4681,
      "यूसुफ़": 4682,
      "तरीके": 4683,
      "अनिल": 4684,
      "गतिविधियों": 4685,
      "कम्युनिस्ट": 4686,
      "सर्वोच्च": 4687,
      "ंश": 4688,
      "अज़": 4689,
      "कश": 4690,
      "घट": 4691,
      "दस्ता": 4692,
      "मसौ": 4693,
      "१२": 4694,
      "१७": 4695,
      "याचिका": 4696,
      "माध्य": 4697,
      "बादी": 4698,
      "नील": 4699,
      "सानिया": 4700,
      "ज़ो": 4701,
      "स्थिर": 4702,
      "तियों": 4703,
      "शास्त्र": 4704,
      "मानता": 4705,
      "डालने": 4706,
      "दुख": 4707,
      "गोवा": 4708,
      "लूगा": 4709,
      "बीसीसीआई": 4710,
      "1989": 4711,
      "सत्य": 4712,
      "इसीलिए": 4713,
      "ख़ुश": 4714,
      "लालगढ़": 4715,
      "स्थापना": 4716,
      "कल्प": 4717,
      "तीसरा": 4718,
      "बतपुर": 4719,
      "डुमरिया": 4720,
      "शिंगटन": 4721,
      "कैबिनेट": 4722,
      "लैंलूगा": 4723,
      "ँट": 4724,
      "आइ": 4725,
      "आयुक्त": 4726,
      "उल": 4727,
      "फली": 4728,
      "ब्या": 4729,
      "ब्यू": 4730,
      "मज": 4731,
      "१६": 4732,
      "मुक़द": 4733,
      "हारी": 4734,
      "रोध": 4735,
      "पुत्र": 4736,
      "रूआ": 4737,
      "बहुजन": 4738,
      "महत्त्व": 4739,
      "लूरु": 4740,
      "पत्थर": 4741,
      "कालाढू": 4742,
      "आकर्षण": 4743,
      "रिज़र्व": 4744,
      "महमूद": 4745,
      "कालाढूगी": 4746,
      "re": 4747,
      "थु": 4748,
      "बहाल": 4749,
      "भरे": 4750,
      "मनि": 4751,
      "मृत": 4752,
      "रार": 4753,
      "नान": 4754,
      "बाला": 4755,
      "सिम": 4756,
      "ख़ारिज": 4757,
      "मंच": 4758,
      "निकट": 4759,
      "पूर्वो": 4760,
      "क्रिस्ट": 4761,
      "धनरूआ": 4762,
      "संबंधों": 4763,
      "खिल": 4764,
      "विधायक": 4765,
      "सहमत": 4766,
      "प्रभाकरण": 4767,
      "हिमालय": 4768,
      "दिलचस्प": 4769,
      "विस्तार": 4770,
      "एनडीए": 4771,
      "पूछताछ": 4772,
      "धम": 4773,
      "फू": 4774,
      "मले": 4775,
      "ॆं": 4776,
      "कोच": 4777,
      "वाम": 4778,
      "जिए": 4779,
      "ज़हीर": 4780,
      "निंग": 4781,
      "कुंब": 4782,
      "मियर": 4783,
      "हमंत्र": 4784,
      "सूचका": 4785,
      "दर्द": 4786,
      "जैंती": 4787,
      "कैसा": 4788,
      "गिरजाघर": 4789,
      "उठाया": 4790,
      "चलाने": 4791,
      "ब्राज़ी": 4792,
      "ट्वेंटी": 4793,
      "प्रणब": 4794,
      "पर्याप्त": 4795,
      "सूचकांक": 4796,
      "31": 4797,
      "उमर": 4798,
      "चढ़": 4799,
      "नही": 4800,
      "मलिक": 4801,
      "ज़िक्र": 4802,
      "निकाला": 4803,
      "मेह": 4804,
      "वेद": 4805,
      "गुट": 4806,
      "खुर्द": 4807,
      "शुरुआती": 4808,
      "गृहमंत्र": 4809,
      "व्हा": 4810,
      "गगन": 4811,
      "नस्": 4812,
      "नरी": 4813,
      "पवार": 4814,
      "बद्ध": 4815,
      "नापुर": 4816,
      "लानी": 4817,
      "ल्लि": 4818,
      "रीबी": 4819,
      "ख़र्च": 4820,
      "क़त": 4821,
      "शाखा": 4822,
      "रोल": 4823,
      "गढा": 4824,
      "ट्रै": 4825,
      "छोड़कर": 4826,
      "किरदार": 4827,
      "इंटरनेट": 4828,
      "नतीजे": 4829,
      "भ्रष्ट": 4830,
      "अड्डे": 4831,
      "ज़मानत": 4832,
      "पीलीभीत": 4833,
      "आसानी": 4834,
      "कस्": 4835,
      "बरे": 4836,
      "मधु": 4837,
      "०४": 4838,
      "कें": 4839,
      "कियों": 4840,
      "गाय": 4841,
      "माई": 4842,
      "संर": 4843,
      "पूछे": 4844,
      "हरू": 4845,
      "शिखर": 4846,
      "गुल": 4847,
      "देखिए": 4848,
      "डेढ़": 4849,
      "रखें": 4850,
      "तुर्": 4851,
      "प्रीमियर": 4852,
      "काउंसिल": 4853,
      "उड़ान": 4854,
      "क्सिको": 4855,
      "कुंबले": 4856,
      "आइस": 4857,
      "भवन": 4858,
      "मकान": 4859,
      "यहीं": 4860,
      "काफली": 4861,
      "गायक": 4862,
      "ज़ई": 4863,
      "ख़तर": 4864,
      "श्न": 4865,
      "ज़ाम": 4866,
      "भर्ती": 4867,
      "1996": 4868,
      "इंडस्ट्री": 4869,
      "लड़की": 4870,
      "शरण": 4871,
      "निकालने": 4872,
      "सूर्यगढा": 4873,
      "प्रत्याशी": 4874,
      "शताब्दी": 4875,
      "आंक": 4876,
      "आराम": 4877,
      "भरी": 4878,
      "रद्द": 4879,
      "सपा": 4880,
      "सेरा": 4881,
      "स्मार": 4882,
      "प्रणा": 4883,
      "रेट": 4884,
      "रेडियो": 4885,
      "जीते": 4886,
      "पीर": 4887,
      "प्रतिनिधि": 4888,
      "जीतकर": 4889,
      "कॉन्": 4890,
      "ख्यात": 4891,
      "ग्रस्त": 4892,
      "प्रदर्शनकारियों": 4893,
      "पुनर्": 4894,
      "दृश्य": 4895,
      "सुनाई": 4896,
      "बायली": 4897,
      "पूर्वोत्तर": 4898,
      "आर्": 4899,
      "आसन": 4900,
      "आधु": 4901,
      "ञ्": 4902,
      "डै": 4903,
      "शल": 4904,
      "हसी": 4905,
      "प्रक्षे": 4906,
      "माला": 4907,
      "चिड़िया": 4908,
      "गुना": 4909,
      "बुरा": 4910,
      "संग्रा": 4911,
      "डिंग": 4912,
      "1993": 4913,
      "खोला": 4914,
      "मरने": 4915,
      "परेशान": 4916,
      "गेंदबाज़ी": 4917,
      "जोशीमठ": 4918,
      "अब्दुल्ला": 4919,
      "कसाब": 4920,
      "चें": 4921,
      "पदार्": 4922,
      "सॉ": 4923,
      "केश": 4924,
      "नाई": 4925,
      "वासन": 4926,
      "मिश्र": 4927,
      "संपाद": 4928,
      "वेदन": 4929,
      "बेन": 4930,
      "पीड़ित": 4931,
      "अधि": 4932,
      "गोपाल": 4933,
      "ग़ु": 4934,
      "बढ़े": 4935,
      "सौंप": 4936,
      "पालीगंज": 4937,
      "मूर्त": 4938,
      "तमादपुर": 4939,
      "प्राथमिक": 4940,
      "गगनचु": 4941,
      "ur": 4942,
      "आपात": 4943,
      "एटी": 4944,
      "एतमादपुर": 4945,
      "ऑपरे": 4946,
      "डब्": 4947,
      "दश": 4948,
      "ल्यू": 4949,
      "र्न": 4950,
      "नाय": 4951,
      "वाहन": 4952,
      "ज़बर्": 4953,
      "पाठ": 4954,
      "स्त्री": 4955,
      "मेजर": 4956,
      "रोग": 4957,
      "रोमा": 4958,
      "ब्लॉ": 4959,
      "जेम्स": 4960,
      "व्यवहार": 4961,
      "1997": 4962,
      "अग्र": 4963,
      "१९७": 4964,
      "आजकल": 4965,
      "तस्वीरें": 4966,
      "लगते": 4967,
      "विशेषज्ञों": 4968,
      "पदार्थ": 4969,
      "गगनचुम्बी": 4970,
      "ंदी": 4971,
      "तः": 4972,
      "नवीन": 4973,
      "वने": 4974,
      "हड़": 4975,
      "ेंगी": 4976,
      "साधन": 4977,
      "दीदा": 4978,
      "मेहन": 4979,
      "सुझा": 4980,
      "नौबतपुर": 4981,
      "नैटो": 4982,
      "पहुंच": 4983,
      "पासवान": 4984,
      "मार्क": 4985,
      "कलन": 4986,
      "सवालों": 4987,
      "ढाई": 4988,
      "मुझसे": 4989,
      "फँसे": 4990,
      "पटियाली": 4991,
      "काफलीगैर": 4992,
      "झड़": 4993,
      "श्रा": 4994,
      "सच्": 4995,
      "हद": 4996,
      "हसन": 4997,
      "किले": 4998,
      "सेक्स": 4999,
      "प्रि": 5000,
      "देखे": 5001,
      "न्हा": 5002,
      "तोष": 5003,
      "स्टि": 5004,
      "वीरें": 5005,
      "डाला": 5006,
      "कमज़ोर": 5007,
      "लंबा": 5008,
      "गिरी": 5009,
      "रूपए": 5010,
      "1990": 5011,
      "व्यापक": 5012,
      "सुनने": 5013,
      "धारावाहि": 5014,
      "नाराज़गी": 5015,
      "समीक्षा": 5016,
      "प्रशासित": 5017,
      "पृथ": 5018,
      "भारतीयों": 5019,
      "वीरेंदर": 5020,
      "45": 5021,
      "अके": 5022,
      "उदा": 5023,
      "ठहराया": 5024,
      "कोला": 5025,
      "प्रथम": 5026,
      "राज्यपाल": 5027,
      "निष्": 5028,
      "मुक": 5029,
      "रिच": 5030,
      "बेच": 5031,
      "कर्मी": 5032,
      "इलाक़ा": 5033,
      "बोर": 5034,
      "परियोजना": 5035,
      "भूटान": 5036,
      "अभियुक्त": 5037,
      "लुटे": 5038,
      "1991": 5039,
      "स्वयं": 5040,
      "इस्लामी": 5041,
      "चित्रकार": 5042,
      "वकीलों": 5043,
      "हिमाचल": 5044,
      "असली": 5045,
      "लगती": 5046,
      "इलेक्": 5047,
      "भड़का": 5048,
      "RE": 5049,
      "जला": 5050,
      "जपुर": 5051,
      "पंद्र": 5052,
      "बई": 5053,
      "कोष": 5054,
      "न्दर": 5055,
      "क्की": 5056,
      "दिरा": 5057,
      "ख़िता": 5058,
      "मैक्के": 5059,
      "्यान": 5060,
      "वारे": 5061,
      "निर्धार": 5062,
      "गुज़र": 5063,
      "बहुमत": 5064,
      "टरों": 5065,
      "शेर": 5066,
      "सर्वा": 5067,
      "खेलते": 5068,
      "सहकुंड": 5069,
      "पुराना": 5070,
      "पसंदीदा": 5071,
      "टूबर": 5072,
      "नतीजों": 5073,
      "दृष्टि": 5074,
      "मूर्ति": 5075,
      "अनुरोध": 5076,
      "गृहमंत्री": 5077,
      "भ्रष्टाचार": 5078,
      "आधिकार": 5079,
      "खर्च": 5080,
      "बानी": 5081,
      "सीख": 5082,
      "फ़्यू": 5083,
      "जाया": 5084,
      "रहरा": 5085,
      "ख़तरे": 5086,
      "कहता": 5087,
      "रोड": 5088,
      "मोटर्स": 5089,
      "गीत": 5090,
      "बातों": 5091,
      "बनाना": 5092,
      "आपत्ति": 5093,
      "डाइ": 5094,
      "लगांव": 5095,
      "गोलियाँ": 5096,
      "कमल": 5097,
      "टिश": 5098,
      "जुट": 5099,
      "दरवा": 5100,
      "खुश": 5101,
      "होंगी": 5102,
      "बंदूक": 5103,
      "पहुँची": 5104,
      "अक्टूबर": 5105,
      "साँस": 5106,
      "बीजेपी": 5107,
      "पंद्रह": 5108,
      "मैक्केन": 5109,
      "अत्य": 5110,
      "अचान": 5111,
      "न्ड": 5112,
      "मजा": 5113,
      "हस्त": 5114,
      "कोण": 5115,
      "देगी": 5116,
      "सावी": 5117,
      "ज़्": 5118,
      "त्रा": 5119,
      "स्ट्र": 5120,
      "बेताल": 5121,
      "कृषि": 5122,
      "ब्रह्": 5123,
      "1999": 5124,
      "हिंसक": 5125,
      "चर्चित": 5126,
      "1977": 5127,
      "कलाकारों": 5128,
      "२०१०": 5129,
      "आसिफ़": 5130,
      "ख़रीद": 5131,
      "खड़गपुर": 5132,
      "व्हाइट": 5133,
      "ञ्चल": 5134,
      "आधिकारिक": 5135,
      "अचानक": 5136,
      "बेतालघाट": 5137,
      "38": 5138,
      "of": 5139,
      "अंग": 5140,
      "अञ्चल": 5141,
      "लेस": 5142,
      "लाइट": 5143,
      "वाड": 5144,
      "बाज़ी": 5145,
      "विस्थापित": 5146,
      "निधन": 5147,
      "हिम": 5148,
      "बीहता": 5149,
      "निर्भर": 5150,
      "मतभेद": 5151,
      "कपड़े": 5152,
      "खिज़िर": 5153,
      "पेशकश": 5154,
      "खींच": 5155,
      "बाराकोट": 5156,
      "मणि": 5157,
      "अंतरिम": 5158,
      "कमांडर": 5159,
      "क्लोराइड": 5160,
      "प्रत्यक्ष": 5161,
      "कोहली": 5162,
      "आज़म": 5163,
      "सर्वाधिक": 5164,
      "खिज़िरसराय": 5165,
      "om": 5166,
      "फॉ": 5167,
      "रहीं": 5168,
      "लश्": 5169,
      "हथ": 5170,
      "प्रशिक्षण": 5171,
      "वासियों": 5172,
      "लिस": 5173,
      "चुने": 5174,
      "गुप्त": 5175,
      "बंधक": 5176,
      "बढ़ो": 5177,
      "जुड़": 5178,
      "1985": 5179,
      "१९८": 5180,
      "ख़ुफ़िया": 5181,
      "मिलेगी": 5182,
      "उद्यान": 5183,
      "दिखता": 5184,
      "फुल": 5185,
      "हाईकोर्ट": 5186,
      "मराठी": 5187,
      "शैली": 5188,
      "आयर": 5189,
      "झू": 5190,
      "णि": 5191,
      "तमाम": 5192,
      "नायक": 5193,
      "प्रकृति": 5194,
      "वायर": 5195,
      "देवल": 5196,
      "पहन": 5197,
      "पैर": 5198,
      "ब्रॉ": 5199,
      "उदय": 5200,
      "संस्थाओं": 5201,
      "चंद्रयान": 5202,
      "टाइम्स": 5203,
      "हमलावरों": 5204,
      "प्रदर्शनों": 5205,
      "कामयाब": 5206,
      "एनएसजी": 5207,
      "अधीन": 5208,
      "मसौढी": 5209,
      "ब्राज़ील": 5210,
      "आधुनिक": 5211,
      "ख़िताब": 5212,
      "34": 5213,
      "इर": 5214,
      "चॆ": 5215,
      "टक्कर": 5216,
      "धरहरा": 5217,
      "वला": 5218,
      "किसा": 5219,
      "हालय": 5220,
      "हाइड": 5221,
      "नियर": 5222,
      "बिया": 5223,
      "बिता": 5224,
      "ख़्": 5225,
      "वेतन": 5226,
      "पीटी": 5227,
      "निर्मित": 5228,
      "खेली": 5229,
      "अंकों": 5230,
      "न्यूज़": 5231,
      "घुस": 5232,
      "भोजन": 5233,
      "पहाड़": 5234,
      "बचने": 5235,
      "वृद्धि": 5236,
      "सम्मानित": 5237,
      "गेंदबाज़": 5238,
      "जगदीशपुर": 5239,
      "मेहनत": 5240,
      "अमास": 5241,
      "आंत": 5242,
      "खड़ी": 5243,
      "चढ़ा": 5244,
      "टु": 5245,
      "पचा": 5246,
      "बुर": 5247,
      "वामपं": 5248,
      "राजद": 5249,
      "राजनाथ": 5250,
      "साध": 5251,
      "चावल": 5252,
      "चुन": 5253,
      "पहर": 5254,
      "ष्ट्रीय": 5255,
      "कर्फ़्यू": 5256,
      "इलाज": 5257,
      "प्रतिनि": 5258,
      "जेड": 5259,
      "हिस्सों": 5260,
      "ब्राह्": 5261,
      "पंजाबी": 5262,
      "फ्लो": 5263,
      "मानवीय": 5264,
      "साहित्यकार": 5265,
      "डेविड": 5266,
      "नाइटेड": 5267,
      "क्साइड": 5268,
      "el": 5269,
      "इश": 5270,
      "इली": 5271,
      "गित": 5272,
      "चारी": 5273,
      "तत्व": 5274,
      "पॉल": 5275,
      "बहि": 5276,
      "रित": 5277,
      "ौनी": 5278,
      "कोटा": 5279,
      "हान": 5280,
      "फ़री": 5281,
      "क्कन": 5282,
      "जाल": 5283,
      "संविधान": 5284,
      "दाम": 5285,
      "मीरा": 5286,
      "ऊँची": 5287,
      "पूजा": 5288,
      "टाटा": 5289,
      "्राष्ट्रीय": 5290,
      "बढ़ी": 5291,
      "बढ़ने": 5292,
      "संबंधी": 5293,
      "रॉयल": 5294,
      "बल्लेबाज़ों": 5295,
      "बचपन": 5296,
      "संग्रहालय": 5297,
      "ूँगा": 5298,
      "वास्तव": 5299,
      "फ़लस्ती": 5300,
      "चिकित्सा": 5301,
      "परेशानी": 5302,
      "आईएमएफ़": 5303,
      "नस्ल": 5304,
      "ज़बर्दस्त": 5305,
      "ठिका": 5306,
      "ड्यू": 5307,
      "स्सा": 5308,
      "बास": 5309,
      "देगा": 5310,
      "पाते": 5311,
      "दीक": 5312,
      "चाय": 5313,
      "प्रतिभा": 5314,
      "1998": 5315,
      "बर्मा": 5316,
      "1988": 5317,
      "मिलाकर": 5318,
      "शिवराज": 5319,
      "गणित": 5320,
      "तारीख़": 5321,
      "90": 5322,
      "आरो": 5323,
      "इजा": 5324,
      "पटा": 5325,
      "म०": 5326,
      "ल०": 5327,
      "हजार": 5328,
      "ूदी": 5329,
      "ॉस": 5330,
      "कीय": 5331,
      "ताओं": 5332,
      "मालिक": 5333,
      "बाजी": 5334,
      "सीला": 5335,
      "क्ल": 5336,
      "विस": 5337,
      "ानों": 5338,
      "प्रतिद्व": 5339,
      "दौड़": 5340,
      "बोली": 5341,
      "श्रीनगर": 5342,
      "वन्य": 5343,
      "सुरक्षाबलों": 5344,
      "महात्मा": 5345,
      "तुल्ला": 5346,
      "बंदर": 5347,
      "1982": 5348,
      "आरपी": 5349,
      "अल्पसं": 5350,
      "करवाने": 5351,
      "ing": 5352,
      "अलगाववादी": 5353,
      "प्रणाली": 5354,
      "आशा": 5355,
      "औद्यो": 5356,
      "तल्ली": 5357,
      "न्त": 5358,
      "मद्": 5359,
      "मज़ा": 5360,
      "्ल": 5361,
      "विज्ञा": 5362,
      "पालिका": 5363,
      "क़रार": 5364,
      "टेनिस": 5365,
      "पेशा": 5366,
      "गहरा": 5367,
      "इंदिरा": 5368,
      "चोपड़ा": 5369,
      "ार्क": 5370,
      "मोर्चा": 5371,
      "भूतपूर्व": 5372,
      "प्रगतिशील": 5373,
      "प्रशंसक": 5374,
      "माध्यम": 5375,
      "किसानों": 5376,
      "कच्": 5377,
      "डिक": 5378,
      "नारे": 5379,
      "रवै": 5380,
      "वाड़ा": 5381,
      "साफ": 5382,
      "लिखी": 5383,
      "क़ब्": 5384,
      "मेट्रो": 5385,
      "गेट": 5386,
      "स्टॉक": 5387,
      "मिलते": 5388,
      "चेहरे": 5389,
      "कमरे": 5390,
      "दौलत": 5391,
      "कारणों": 5392,
      "1980": 5393,
      "मून": 5394,
      "लालकृष्ण": 5395,
      "श्रद्धा": 5396,
      "श्रृंखला": 5397,
      "आज़ादी": 5398,
      "तेहरान": 5399,
      "मिस्र": 5400,
      "चाँद": 5401,
      "चिड़ियाघर": 5402,
      "ol": 5403,
      "उड़ा": 5404,
      "घू": 5405,
      "ठो": 5406,
      "वों": 5407,
      "५०": 5408,
      "माय": 5409,
      "दोपहर": 5410,
      "सुख": 5411,
      "वर्मा": 5412,
      "गोला": 5413,
      "शेख": 5414,
      "शेख़": 5415,
      "महाद्वीप": 5416,
      "प्पा": 5417,
      "कंप्यू": 5418,
      "पड़ने": 5419,
      "१९९": 5420,
      "जलवायु": 5421,
      "चर्च": 5422,
      "छोड़ने": 5423,
      "स्वरूप": 5424,
      "सहायक": 5425,
      "गौरा": 5426,
      "डोना": 5427,
      "लक्ष्मी": 5428,
      "कनाडा": 5429,
      "सीपीएम": 5430,
      "सूत्रों": 5431,
      "पृथ्वी": 5432,
      "निर्धारित": 5433,
      "अल्पसंख्य": 5434,
      "37": 5435,
      "घि": 5436,
      "ज्यो": 5437,
      "ठहर": 5438,
      "धू": 5439,
      "बंग": 5440,
      "सरी": 5441,
      "सरह": 5442,
      "बाबू": 5443,
      "लिये": 5444,
      "विधे": 5445,
      "स्थगित": 5446,
      "कुर्": 5447,
      "संचार": 5448,
      "रिस": 5449,
      "म्मत": 5450,
      "स्टो": 5451,
      "इनकी": 5452,
      "दूत": 5453,
      "वर्ल्ड": 5454,
      "जिसने": 5455,
      "वरं": 5456,
      "जुटा": 5457,
      "अफ़ग़": 5458,
      "खुले": 5459,
      "1981": 5460,
      "अक्सर": 5461,
      "रॉयल्स": 5462,
      "चार्जर्स": 5463,
      "करुणा": 5464,
      "अकबर": 5465,
      "एटीएस": 5466,
      "ऑफ": 5467,
      "कमाल": 5468,
      "झटका": 5469,
      "ढंग": 5470,
      "मल्ली": 5471,
      "सकारात्मक": 5472,
      "राती": 5473,
      "गानिस्तान": 5474,
      "हाद": 5475,
      "हाली": 5476,
      "बाज़": 5477,
      "जिया": 5478,
      "सीधा": 5479,
      "रिश": 5480,
      "पिंग": 5481,
      "चारिक": 5482,
      "लगाते": 5483,
      "टीमों": 5484,
      "अधिकारों": 5485,
      "भूकंप": 5486,
      "केंद्रों": 5487,
      "ब्रिटिश": 5488,
      "पड़ो": 5489,
      "धरती": 5490,
      "बॉल": 5491,
      "इराक़ी": 5492,
      "फिलहाल": 5493,
      "पहुँचाने": 5494,
      "गैस": 5495,
      "क़ीमतों": 5496,
      "क्रांति": 5497,
      "भेजने": 5498,
      "जंगलों": 5499,
      "उद्देश": 5500,
      "राजीव": 5501,
      "पीटीआई": 5502,
      "अ०": 5503,
      "कन्न": 5504,
      "चट्ट": 5505,
      "जं": 5506,
      "दंगों": 5507,
      "नष्ट": 5508,
      "पित": 5509,
      "पंड": 5510,
      "मक़": 5511,
      "वज़ी": 5512,
      "सली": 5513,
      "काग": 5514,
      "प्रार": 5515,
      "वाने": 5516,
      "फ़ौ": 5517,
      "निगम": 5518,
      "स्थितियों": 5519,
      "बिक्री": 5520,
      "समर्": 5521,
      "कहला": 5522,
      "वार्": 5523,
      "बार्": 5524,
      "गीर": 5525,
      "अध्या": 5526,
      "गुला": 5527,
      "पैंती": 5528,
      "बुद्ध": 5529,
      "शेखर": 5530,
      "ख़ासी": 5531,
      "समाधान": 5532,
      "1994": 5533,
      "विकासशील": 5534,
      "गिरफ़्तारी": 5535,
      "ओवरों": 5536,
      "फैला": 5537,
      "तारीफ़": 5538,
      "नक्सल": 5539,
      "ब्याज": 5540,
      "ख़तरनाक": 5541,
      "पीरपैंती": 5542,
      "ऑपरेशन": 5543,
      "धारावाहिक": 5544,
      "अफ़ग़ान": 5545,
      "ंठ": 5546,
      "अजय": 5547,
      "उच्": 5548,
      "गँ": 5549,
      "गिला": 5550,
      "घंट": 5551,
      "झी": 5552,
      "णमूल": 5553,
      "पढ़ाई": 5554,
      "फ्ट": 5555,
      "बग": 5556,
      "रवी": 5557,
      "सत्त": 5558,
      "कानों": 5559,
      "कीमत": 5560,
      "स्मिथ": 5561,
      "करार": 5562,
      "साझे": 5563,
      "बिन": 5564,
      "सिंध": 5565,
      "बीमार": 5566,
      "क़बायली": 5567,
      "पियन": 5568,
      "बनाते": 5569,
      "फ़िल्मी": 5570,
      "सोमा": 5571,
      "गुफा": 5572,
      "बढ़ते": 5573,
      "बनना": 5574,
      "कार्यकारी": 5575,
      "आएगा": 5576,
      "1986": 5577,
      "रैंकिंग": 5578,
      "प्रियंका": 5579,
      "युवाओं": 5580,
      "प्रसारित": 5581,
      "पुलिसकर्मी": 5582,
      "तत्काल": 5583,
      "रिचर्ड": 5584,
      "टर्": 5585,
      "दय": 5586,
      "बरि": 5587,
      "प्रताप": 5588,
      "लामा": 5589,
      "्वे": 5590,
      "बीमारी": 5591,
      "पहल": 5592,
      "ंतु": 5593,
      "ष्कार": 5594,
      "सूबा": 5595,
      "धारण": 5596,
      "हेडन": 5597,
      "गारंटी": 5598,
      "प्रोफ़े": 5599,
      "ख़ासकर": 5600,
      "पार्टियाँ": 5601,
      "युवक": 5602,
      "परीक्षा": 5603,
      "अमेरिकी": 5604,
      "तृणमूल": 5605,
      "शिविर": 5606,
      "ज़रुरत": 5607,
      "चेंज": 5608,
      "सुझाव": 5609,
      "उदाहरण": 5610,
      "लुटेरों": 5611,
      "आयरलैंड": 5612,
      "बहिष्कार": 5613,
      "इजाज़त": 5614,
      "विधेयक": 5615,
      "39": 5616,
      "इम": 5617,
      "कड़": 5618,
      "गयी": 5619,
      "जज": 5620,
      "डोली": 5621,
      "ममता": 5622,
      "किरा": 5623,
      "विख्यात": 5624,
      "स्थलों": 5625,
      "बिक्रम": 5626,
      "बीएस": 5627,
      "मंद": 5628,
      "जीरिया": 5629,
      "पारा": 5630,
      "डेल्": 5631,
      "सुरक्षाकर्मियों": 5632,
      "नोबेल": 5633,
      "जिनकी": 5634,
      "ख़ुशी": 5635,
      "जितनी": 5636,
      "इस्लाम": 5637,
      "डॉक्टरों": 5638,
      "समीकरण": 5639,
      "एक्सप्रेस": 5640,
      "मुरली": 5641,
      "ब्राह्मण": 5642,
      "उद्देश्य": 5643,
      "36": 5644,
      "ंदि": 5645,
      "ंटा": 5646,
      "अंध": 5647,
      "ईशांत": 5648,
      "चयन": 5649,
      "बड़": 5650,
      "समान": 5651,
      "हक़": 5652,
      "ानी": 5653,
      "११": 5654,
      "लेट": 5655,
      "ण्डा": 5656,
      "फ़्रेंस": 5657,
      "मुश": 5658,
      "संतोष": 5659,
      "सिन्हा": 5660,
      "हारे": 5661,
      "रिय": 5662,
      "रिस्तान": 5663,
      "बताई": 5664,
      "सुरेश": 5665,
      "गूड": 5666,
      "धीन": 5667,
      "चैन": 5668,
      "नागपुर": 5669,
      "मित्र": 5670,
      "मॉडल": 5671,
      "अर्धसैनिक": 5672,
      "मृत्यु": 5673,
      "औद्योगिक": 5674,
      "उचित": 5675,
      "तर्क": 5676,
      "दै": 5677,
      "मनी": 5678,
      "मसा": 5679,
      "लव": 5680,
      "सनिक": 5681,
      "काई": 5682,
      "काज": 5683,
      "याम": 5684,
      "साथी": 5685,
      "लिकॉ": 5686,
      "पाना": 5687,
      "क्षकों": 5688,
      "तिवारी": 5689,
      "थाई": 5690,
      "रोहित": 5691,
      "बेल्": 5692,
      "लगने": 5693,
      "गोवि": 5694,
      "भेजे": 5695,
      "जिनका": 5696,
      "छीना": 5697,
      "रैना": 5698,
      "करेंगी": 5699,
      "ड्डि": 5700,
      "समस्याओं": 5701,
      "शब्दों": 5702,
      "गर्मी": 5703,
      "नामांकन": 5704,
      "वस्तुओं": 5705,
      "दलीय": 5706,
      "आकर्षित": 5707,
      "गिलक्रिस्ट": 5708,
      "स्मारक": 5709,
      "सरहद": 5710,
      "48": 5711,
      "ंसा": 5712,
      "आबादी": 5713,
      "आकलन": 5714,
      "ख्": 5715,
      "ट्यू": 5716,
      "ठु": 5717,
      "ड्र": 5718,
      "वधान": 5719,
      "एक्": 5720,
      "तांत्रिक": 5721,
      "वाता": 5722,
      "मात": 5723,
      "माध": 5724,
      "कुंट": 5725,
      "मिंगो": 5726,
      "सिए": 5727,
      "सिन": 5728,
      "सिस्ट": 5729,
      "बीघा": 5730,
      "अपहरण": 5731,
      "म्बे": 5732,
      "निर्णा": 5733,
      "रुझ": 5734,
      "व्यस्त": 5735,
      "ब्लै": 5736,
      "घाय": 5737,
      "सन्त": 5738,
      "पैमाने": 5739,
      "पोल": 5740,
      "कैच": 5741,
      "यूनाइटेड": 5742,
      "जूझ": 5743,
      "जानवर": 5744,
      "अफ़्री": 5745,
      "तुल": 5746,
      "1995": 5747,
      "1987": 5748,
      "ट्रॉ": 5749,
      "नाथनगर": 5750,
      "ड्डी": 5751,
      "लिखित": 5752,
      "गेंदबाज़ों": 5753,
      "रवाना": 5754,
      "कर्मचारी": 5755,
      "सेमीफ़ाइनल": 5756,
      "तेलुगु": 5757,
      "ou": 5758,
      "एपी": 5759,
      "ऑक्साइड": 5760,
      "कंट": 5761,
      "गड़": 5762,
      "णे": 5763,
      "पचारिक": 5764,
      "रज़ा": 5765,
      "वट": 5766,
      "षेक": 5767,
      "सई": 5768,
      "३०": 5769,
      "ारसी": 5770,
      "रामा": 5771,
      "गाड": 5772,
      "कोलं": 5773,
      "हीन": 5774,
      "राजनेता": 5775,
      "विफल": 5776,
      "पाक": 5777,
      "दाख़": 5778,
      "शासक": 5779,
      "खाता": 5780,
      "मार्ट": 5781,
      "निर्यात": 5782,
      "रुक": 5783,
      "सोन": 5784,
      "महँगा": 5785,
      "जुन": 5786,
      "कट्टर": 5787,
      "इंस": 5788,
      "कराए": 5789,
      "नरेंद्र": 5790,
      "कश्मी": 5791,
      "चरणों": 5792,
      "भोपाल": 5793,
      "कर्ताओं": 5794,
      "ारोहण": 5795,
      "काउंटी": 5796,
      "बहादुर": 5797,
      "चीज़ें": 5798,
      "पोंटिंग": 5799,
      "ड्राइ": 5800,
      "भड़काऊ": 5801,
      "घंटों": 5802,
      "de": 5803,
      "गरी": 5804,
      "गौर": 5805,
      "थान": 5806,
      "बर्ट": 5807,
      "मती": 5808,
      "ोने": 5809,
      "करज़ई": 5810,
      "हिल": 5811,
      "हिया": 5812,
      "रिकी": 5813,
      "टीमें": 5814,
      "शास्त्री": 5815,
      "दोस्ती": 5816,
      "निकलने": 5817,
      "2010": 5818,
      "दुश्": 5819,
      "भूषण": 5820,
      "पूर्वक": 5821,
      "महासागर": 5822,
      "नोटिस": 5823,
      "निर्वाचित": 5824,
      "वर्ती": 5825,
      "वृक्ष": 5826,
      "फरवरी": 5827,
      "प्रशासनिक": 5828,
      "मालेगाँव": 5829,
      "प्राथमिकता": 5830,
      "वज़ीरिस्तान": 5831,
      "निर्णायक": 5832,
      "जरू": 5833,
      "धर्": 5834,
      "प्टर": 5835,
      "शिक": 5836,
      "ॉय": 5837,
      "रासाय": 5838,
      "लेन": 5839,
      "स्वि": 5840,
      "साज़ि": 5841,
      "ज़बर": 5842,
      "राज्यसभा": 5843,
      "ल्क": 5844,
      "मिद": 5845,
      "दर्शी": 5846,
      "जेट": 5847,
      "नीतियों": 5848,
      "कैंप": 5849,
      "क्रिके": 5850,
      "सांस्": 5851,
      "हेल": 5852,
      "आरक्षण": 5853,
      "दर्शनीय": 5854,
      "टूर्ना": 5855,
      "कप्तानी": 5856,
      "000": 5857,
      "इस्तीफ़े": 5858,
      "ग़लती": 5859,
      "साझेदारी": 5860,
      "मिंगोरा": 5861,
      "घायलों": 5862,
      "आयु": 5863,
      "ऋण": 5864,
      "एसो": 5865,
      "तपुर": 5866,
      "बले": 5867,
      "स्पि": 5868,
      "स्कॉ": 5869,
      "बाधा": 5870,
      "न्ने": 5871,
      "सामग": 5872,
      "देशमुख": 5873,
      "मुसावी": 5874,
      "तिया": 5875,
      "दायर": 5876,
      "बिहारी": 5877,
      "चुला": 5878,
      "दोहरा": 5879,
      "सुनिश्चित": 5880,
      "सरकारों": 5881,
      "लगाकर": 5882,
      "पेड़": 5883,
      "मौक़े": 5884,
      "डेक्कन": 5885,
      "जानकार": 5886,
      "गहरी": 5887,
      "इंसान": 5888,
      "स्टेट": 5889,
      "पट्ट": 5890,
      "फ़ेडर": 5891,
      "बदलने": 5892,
      "पुनपुन": 5893,
      "ट्राइ": 5894,
      "स्वतंत्रता": 5895,
      "पुलिसकर्मियों": 5896,
      "बौद्ध": 5897,
      "गौराडीह": 5898,
      "ज्योति": 5899,
      "सांस्कृतिक": 5900,
      "it": 5901,
      "ंसे": 5902,
      "आचार": 5903,
      "ओपन": 5904,
      "क्य": 5905,
      "गये": 5906,
      "गॉर्ड": 5907,
      "चं": 5908,
      "चक्र": 5909,
      "मरी": 5910,
      "यब": 5911,
      "यंस": 5912,
      "१३": 5913,
      "नाव": 5914,
      "प्रभु": 5915,
      "संक्रम": 5916,
      "संदेह": 5917,
      "शाला": 5918,
      "वेल": 5919,
      "मिलेंगे": 5920,
      "रायपुर": 5921,
      "कमर": 5922,
      "नैल": 5923,
      "पोस्ट": 5924,
      "पर्व": 5925,
      "लूम": 5926,
      "1983": 5927,
      "बराबर": 5928,
      "परिवारों": 5929,
      "ढाका": 5930,
      "सेंटर": 5931,
      "हताहत": 5932,
      "एक्सचेंज": 5933,
      "कनाली": 5934,
      "संभालने": 5935,
      "सपना": 5936,
      "अजमेर": 5937,
      "घूमने": 5938,
      "विश्लेषकों": 5939,
      "सौरभ": 5940,
      "पचास": 5941,
      "पेशावर": 5942,
      "ब्लैक": 5943,
      "साज़िश": 5944,
      "गॉर्डन": 5945,
      "आकार": 5946,
      "इधर": 5947,
      "जमी": 5948,
      "ठहरा": 5949,
      "नें": 5950,
      "रघु": 5951,
      "हैया": 5952,
      "रां": 5953,
      "प्रबंधन": 5954,
      "माफ़ी": 5955,
      "बाहरी": 5956,
      "सीन": 5957,
      "लिता": 5958,
      "ल्या": 5959,
      "क्लब": 5960,
      "विरु": 5961,
      "मुल": 5962,
      "थाने": 5963,
      "सरो": 5964,
      "वेलियन": 5965,
      "खाते": 5966,
      "खाद्य": 5967,
      "टाई": 5968,
      "डीपी": 5969,
      "पेक्ष": 5970,
      "पंचा": 5971,
      "ब्रुक": 5972,
      "तुहा": 5973,
      "कंपनियाँ": 5974,
      "पड़ती": 5975,
      "पक्षों": 5976,
      "चलाया": 5977,
      "चर्य": 5978,
      "अवधि": 5979,
      "लड़ाकों": 5980,
      "श्रम": 5981,
      "पर्वतारोहण": 5982,
      "सेंट": 5983,
      "सुलतान": 5984,
      "सिलसिला": 5985,
      "आईसीएल": 5986,
      "ारिश": 5987,
      "अड्डा": 5988,
      "यूनियन": 5989,
      "पहुंचा": 5990,
      "तुर्की": 5991,
      "संग्रामपुर": 5992,
      "वामपंथी": 5993,
      "रासायनिक": 5994,
      "कनालीछीना": 5995,
      "दह": 5996,
      "फतुहा": 5997,
      "बँट": 5998,
      "मछ": 5999,
      "मसले": 6000,
      "लहर": 6001,
      "सीधी": 6002,
      "ज़ल": 6003,
      "राज्यमंत्री": 6004,
      "विभा": 6005,
      "पाबंदी": 6006,
      "हिता": 6007,
      "ख़ूब": 6008,
      "सुभाष": 6009,
      "निकले": 6010,
      "पेट्रो": 6011,
      "सुरंग": 6012,
      "डेयर": 6013,
      "क्रिस": 6014,
      "फ़ायरिंग": 6015,
      "आएगी": 6016,
      "पालॆं": 6017,
      "इंडोने": 6018,
      "पत्रकारिता": 6019,
      "संघर्षविराम": 6020,
      "उत्सव": 6021,
      "दर्शक": 6022,
      "मात्रा": 6023,
      "२००९": 6024,
      "स्पीकर": 6025,
      "दिमाग़": 6026,
      "पीटरसन": 6027,
      "सच्चाई": 6028,
      "इरफ़ान": 6029,
      "प्रोफ़ेसर": 6030,
      "दाख़िल": 6031,
      "फ़ेडरर": 6032,
      "44": 6033,
      "75": 6034,
      "il": 6035,
      "ंकी": 6036,
      "ईरानी": 6037,
      "कम्प": 6038,
      "झर": 6039,
      "णियों": 6040,
      "बसे": 6041,
      "भंड": 6042,
      "२४": 6043,
      "केर": 6044,
      "कीन": 6045,
      "वाय": 6046,
      "जितना": 6047,
      "साग": 6048,
      "त्तरी": 6049,
      "जागर": 6050,
      "मुँ": 6051,
      "बिर": 6052,
      "बीना": 6053,
      "द्दा": 6054,
      "अधिका": 6055,
      "क्षेत्रीय": 6056,
      "बरौनी": 6057,
      "जाएं": 6058,
      "यरमैन": 6059,
      "फ़ील्ड": 6060,
      "प्ला": 6061,
      "फ़्तार": 6062,
      "ल्लाह": 6063,
      "1971": 6064,
      "1972": 6065,
      "बढ़ावा": 6066,
      "जताया": 6067,
      "किरण": 6068,
      "जमालपुर": 6069,
      "डेविल्स": 6070,
      "अब्दुल": 6071,
      "नरेन्द्र": 6072,
      "स्कीइंग": 6073,
      "तकनीक": 6074,
      "करुणानिधि": 6075,
      "सुलतानगंज": 6076,
      "33": 6077,
      "ch": 6078,
      "उछा": 6079,
      "एका": 6080,
      "धरो": 6081,
      "वरे": 6082,
      "सरा": 6083,
      "लेता": 6084,
      "प्रजाति": 6085,
      "वाहा": 6086,
      "बाबरी": 6087,
      "ितीय": 6088,
      "परवेज़": 6089,
      "विधि": 6090,
      "सिड": 6091,
      "रिटी": 6092,
      "पारित": 6093,
      "टेलर": 6094,
      "दुल्": 6095,
      "दर्भ": 6096,
      "प्रतिष्ठ": 6097,
      "तुम": 6098,
      "एसआई": 6099,
      "ग्ले": 6100,
      "दुनियाभर": 6101,
      "मंदिरों": 6102,
      "रॉकेट": 6103,
      "ध्वी": 6104,
      "तरीक़े": 6105,
      "संगीतकार": 6106,
      "गुजराती": 6107,
      "कविता": 6108,
      "न्यायिक": 6109,
      "वैज्ञानिकों": 6110,
      "घेर": 6111,
      "आश्चर्य": 6112,
      "नक्सली": 6113,
      "नक्सलियों": 6114,
      "पलायन": 6115,
      "डायरे": 6116,
      "फ्रांस": 6117,
      "मजबूर": 6118,
      "मंज़ूरी": 6119,
      "मुक़दमा": 6120,
      "संपादक": 6121,
      "देवलथल": 6122,
      "कंप्यूटर": 6123,
      "पंडित": 6124,
      "गिलानी": 6125,
      "कश्मीरी": 6126,
      "इयों": 6127,
      "एके": 6128,
      "गली": 6129,
      "चय": 6130,
      "जनों": 6131,
      "पद्": 6132,
      "हर्": 6133,
      "नेहरू": 6134,
      "लापता": 6135,
      "साझा": 6136,
      "विवाह": 6137,
      "मिशन": 6138,
      "सिफ़": 6139,
      "रियल": 6140,
      "मेला": 6141,
      "सुर्": 6142,
      "पीढ़ी": 6143,
      "हिन्दू": 6144,
      "शिल्": 6145,
      "क्षेत्रफल": 6146,
      "गोद": 6147,
      "गोल्ड": 6148,
      "कामकाज": 6149,
      "पंथी": 6150,
      "बुनिया": 6151,
      "डेरा": 6152,
      "झेल": 6153,
      "द्वितीय": 6154,
      "ब्रो": 6155,
      "जानता": 6156,
      "इंजी": 6157,
      "कराई": 6158,
      "सौंद": 6159,
      "खंडन": 6160,
      "निर्माणा": 6161,
      "प्रसारण": 6162,
      "ग्रीन": 6163,
      "डिकल": 6164,
      "टूर्नामेंट": 6165,
      "सामग्री": 6166,
      "इंडोनेशिया": 6167,
      "धरोहर": 6168,
      "ion": 6169,
      "ईमान": 6170,
      "उले": 6171,
      "उमा": 6172,
      "उभर": 6173,
      "औपचारिक": 6174,
      "जजों": 6175,
      "ढे": 6176,
      "नस": 6177,
      "बग़": 6178,
      "मली": 6179,
      "सफर": 6180,
      "ैया": 6181,
      "राड": 6182,
      "्तान": 6183,
      "एकजुट": 6184,
      "नानी": 6185,
      "स्पति": 6186,
      "वाना": 6187,
      "राजप": 6188,
      "राजे": 6189,
      "राजमार्ग": 6190,
      "परिक": 6191,
      "ंगर": 6192,
      "संभ": 6193,
      "सियत": 6194,
      "ख़्याल": 6195,
      "मेडिकल": 6196,
      "पिच": 6197,
      "मानने": 6198,
      "मानसिक": 6199,
      "खेती": 6200,
      "दर्जा": 6201,
      "चौरा": 6202,
      "ख़ासा": 6203,
      "चैलें": 6204,
      "खोल": 6205,
      "चलाई": 6206,
      "बंगाली": 6207,
      "नतीजा": 6208,
      "नियमित": 6209,
      "इंतज़ाम": 6210,
      "आवश्यक": 6211,
      "तापमान": 6212,
      "दिलचस्पी": 6213,
      "पुरुषों": 6214,
      "ग़रीबों": 6215,
      "निराशा": 6216,
      "सोमालिया": 6217,
      "बरियारपुर": 6218,
      "कंट्रो": 6219,
      "निर्माणाधीन": 6220,
      "43": 6221,
      "ra": 6222,
      "अस्": 6223,
      "अयो": 6224,
      "इए": 6225,
      "कंड": 6226,
      "चंदा": 6227,
      "ढूँ": 6228,
      "बें": 6229,
      "महो": 6230,
      "मशी": 6231,
      "वय": 6232,
      "स्रो": 6233,
      "किम": 6234,
      "लाश": 6235,
      "मांड": 6236,
      "देन": 6237,
      "साध्वी": 6238,
      "पांडे": 6239,
      "दिक्": 6240,
      "दाई": 6241,
      "मैडोना": 6242,
      "वार्ड": 6243,
      "गेम": 6244,
      "सुन्दर": 6245,
      "जनशक्ति": 6246,
      "आईं": 6247,
      "सूर्या": 6248,
      "गुटों": 6249,
      "लोकतांत्रिक": 6250,
      "बुला": 6251,
      "अभिषेक": 6252,
      "सलामी": 6253,
      "कट्": 6254,
      "चैं": 6255,
      "मार्क्स": 6256,
      "सतर्क": 6257,
      "१९५": 6258,
      "सकेगा": 6259,
      "बॉक्स": 6260,
      "जातीय": 6261,
      "कार्यक्रमों": 6262,
      "धिकारी": 6263,
      "रसूल": 6264,
      "हफ़्तों": 6265,
      "निर्माताओं": 6266,
      "राइडर्स": 6267,
      "साँचा": 6268,
      "कामयाबी": 6269,
      "क़ैद": 6270,
      "आँखों": 6271,
      "अहसास": 6272,
      "नरीमन": 6273,
      "प्रक्षेपण": 6274,
      "कन्नड़": 6275,
      "सौंदर्य": 6276,
      "उलेमा": 6277,
      "ed": 6278,
      "इकट्": 6279,
      "बित": 6280,
      "ललित": 6281,
      "ललिता": 6282,
      "शारी": 6283,
      "किला": 6284,
      "राजवंश": 6285,
      "साहि": 6286,
      "लोन": 6287,
      "खाड़ी": 6288,
      "वीएस": 6289,
      "मिलना": 6290,
      "टावर": 6291,
      "वर्सिटी": 6292,
      "प्रावधान": 6293,
      "ठाकुर": 6294,
      "बनर्जी": 6295,
      "जानना": 6296,
      "वैध": 6297,
      "महिलाएँ": 6298,
      "भुत": 6299,
      "पर्वतों": 6300,
      "सुलझा": 6301,
      "उ०व०": 6302,
      "प्रणव": 6303,
      "पृष्ठ": 6304,
      "उन्हीं": 6305,
      "सपने": 6306,
      "नौकरियाँ": 6307,
      "संरक्षण": 6308,
      "मूर्तियाँ": 6309,
      "आंतरिक": 6310,
      "प्रारंभ": 6311,
      "वातावरण": 6312,
      "अधिकांश": 6313,
      "ri": 6314,
      "चपेट": 6315,
      "टुक": 6316,
      "बछ": 6317,
      "बली": 6318,
      "बस्तर": 6319,
      "सनी": 6320,
      "केदार": 6321,
      "माह": 6322,
      "मालूम": 6323,
      "राजू": 6324,
      "पायल": 6325,
      "मुहैया": 6326,
      "सिल्": 6327,
      "पूँ": 6328,
      "मान्यता": 6329,
      "शिल्प": 6330,
      "आपराध": 6331,
      "सैला": 6332,
      "पेशे": 6333,
      "बताने": 6334,
      "नैनो": 6335,
      "शेन": 6336,
      "योग्य": 6337,
      "ख़ास्त": 6338,
      "अरबी": 6339,
      "खेलना": 6340,
      "बर्ख़ास्त": 6341,
      "एनसीपी": 6342,
      "1974": 6343,
      "विचारधारा": 6344,
      "अब्बास": 6345,
      "उपाय": 6346,
      "दोस्तों": 6347,
      "आश्वासन": 6348,
      "महत्त्वपूर्ण": 6349,
      "विरुद्ध": 6350,
      "मुँह": 6351,
      "बग़दाद": 6352,
      "कंट्रोल": 6353,
      "एआर": 6354,
      "ऑफ़ि": 6355,
      "गज": 6356,
      "चट": 6357,
      "ड्": 6358,
      "तथ": 6359,
      "दफ़्त": 6360,
      "नंदि": 6361,
      "बतौर": 6362,
      "भव्य": 6363,
      "ॉट": 6364,
      "किशन": 6365,
      "नांद": 6366,
      "वाज": 6367,
      "वाशिंगटन": 6368,
      "सीमित": 6369,
      "फ़्ट": 6370,
      "लिस्ट": 6371,
      "ल्ट": 6372,
      "ल्लु": 6373,
      "क्ला": 6374,
      "विवे": 6375,
      "सब्": 6376,
      "सदन": 6377,
      "सेनाध्यक्ष": 6378,
      "रामविलास": 6379,
      "रखता": 6380,
      "ब्रिज": 6381,
      "छेड़": 6382,
      "उठाते": 6383,
      "इंडिय": 6384,
      "खोली": 6385,
      "सकेंगे": 6386,
      "खिरी": 6387,
      "लगेगा": 6388,
      "विवादों": 6389,
      "करवाया": 6390,
      "टाइम": 6391,
      "ग्रहण": 6392,
      "नौकरियों": 6393,
      "आज़ाद": 6394,
      "निरपेक्ष": 6395,
      "वायरस": 6396,
      "मुशर्र": 6397,
      "चैलेंजर्स": 6398,
      "अयोध्या": 6399,
      "शारीरिक": 6400,
      "आपराधिक": 6401,
      "to": 6402,
      "टकरा": 6403,
      "ड्रो": 6404,
      "नजर": 6405,
      "फतेह": 6406,
      "बट": 6407,
      "बपुर": 6408,
      "सपुर": 6409,
      "ौल": 6410,
      "राद": 6411,
      "ताक़त": 6412,
      "तियाँ": 6413,
      "मिंग": 6414,
      "संहिता": 6415,
      "मेट": 6416,
      "रोम": 6417,
      "जीवित": 6418,
      "बेसब": 6419,
      "सुनी": 6420,
      "सुमन": 6421,
      "क्रॉस": 6422,
      "इलाकों": 6423,
      "पैदल": 6424,
      "चलित": 6425,
      "ंबल": 6426,
      "उपग्रह": 6427,
      "डिज़ा": 6428,
      "धारचुला": 6429,
      "टोरी": 6430,
      "सर्विस": 6431,
      "घटनास्थल": 6432,
      "पक्षी": 6433,
      "अहमदाबाद": 6434,
      "1978": 6435,
      "पर्यवे": 6436,
      "जाएँगी": 6437,
      "अल्जीरिया": 6438,
      "पर्यावरण": 6439,
      "हिंदुस्तान": 6440,
      "वास्तविक": 6441,
      "संपत्ति": 6442,
      "औऔऔऔ": 6443,
      "मुकाबले": 6444,
      "मृतक": 6445,
      "ब्यूरो": 6446,
      "प्रतिद्वंद": 6447,
      "चैनलों": 6448,
      "डेयरडेविल्स": 6449,
      "सिफ़ारिश": 6450,
      "मुशर्रफ़": 6451,
      "32": 6452,
      "ंजा": 6453,
      "एह": 6454,
      "कमान": 6455,
      "गारी": 6456,
      "छत": 6457,
      "ज्यू": 6458,
      "दं": 6459,
      "धरा": 6460,
      "बलिया": 6461,
      "वॆ": 6462,
      "सज्": 6463,
      "सफे": 6464,
      "सवारी": 6465,
      "हबी": 6466,
      "हफ्त": 6467,
      "केविन": 6468,
      "राग": 6469,
      "नाकाम": 6470,
      "कोड": 6471,
      "गाँवों": 6472,
      "ण्डे": 6473,
      "ज़िया": 6474,
      "लिपि": 6475,
      "पात्र": 6476,
      "मुगल": 6477,
      "मिर्": 6478,
      "मिट्टी": 6479,
      "रिहाई": 6480,
      "हमी": 6481,
      "क़ि": 6482,
      "ऊँचा": 6483,
      "मेश": 6484,
      "रोका": 6485,
      "रोमां": 6486,
      "जोड़े": 6487,
      "चिर": 6488,
      "अबू": 6489,
      "गोपा": 6490,
      "गोरख": 6491,
      "लैंग": 6492,
      "जयललिता": 6493,
      "यौन": 6494,
      "खुशी": 6495,
      "शुरूआत": 6496,
      "गिरने": 6497,
      "योजनाओं": 6498,
      "०००": 6499,
      "चोटी": 6500,
      "फैले": 6501,
      "सुल्तान": 6502,
      "धित्व": 6503,
      "प्रदर्शित": 6504,
      "नज़दीक": 6505,
      "संपन्न": 6506,
      "तिब्बत": 6507,
      "हॉलब्रुक": 6508,
      "ऑनलाइन": 6509,
      "रोधक": 6510,
      "प्रतिनिधित्व": 6511,
      "ठोस": 6512,
      "रिश्ता": 6513,
      "मक़सद": 6514,
      "कोलंबो": 6515,
      "राजपक्षे": 6516,
      "इंडियंस": 6517,
      "ंथ": 6518,
      "अका": 6519,
      "आमत": 6520,
      "ऊं": 6521,
      "एएफ़": 6522,
      "कफो": 6523,
      "खू": 6524,
      "ढो": 6525,
      "नसी": 6526,
      "रक्त": 6527,
      "हस्ता": 6528,
      "ुसार": 6529,
      "केस": 6530,
      "कांत": 6531,
      "साव": 6532,
      "साधारण": 6533,
      "कुण्ड": 6534,
      "बारह": 6535,
      "खाली": 6536,
      "चेयरमैन": 6537,
      "सोल": 6538,
      "गुडी": 6539,
      "हुईं": 6540,
      "मौके": 6541,
      "संगम": 6542,
      "ज़िलों": 6543,
      "गूजर": 6544,
      "कराची": 6545,
      "ग़ायब": 6546,
      "दर्शियों": 6547,
      "फीट": 6548,
      "नियमों": 6549,
      "ers": 6550,
      "बाँध": 6551,
      "विस्तृत": 6552,
      "संतुष्ट": 6553,
      "प्रत्यक्षदर्शियों": 6554,
      "फुलवारी": 6555,
      "उच्चा": 6556,
      "पंचायत": 6557,
      "आमतौर": 6558,
      "अद्": 6559,
      "दमी": 6560,
      "नन": 6561,
      "बों": 6562,
      "मवाल": 6563,
      "यकों": 6564,
      "रपुर": 6565,
      "रत्": 6566,
      "सक्ष": 6567,
      "सफ़ा": 6568,
      "काय": 6569,
      "कांग": 6570,
      "कांड": 6571,
      "एकमात्र": 6572,
      "स्वर": 6573,
      "मालि": 6574,
      "हाजी": 6575,
      "फ़्र": 6576,
      "जात": 6577,
      "लोनी": 6578,
      "हिट": 6579,
      "संवेदन": 6580,
      "अपे": 6581,
      "मेले": 6582,
      "मेज़": 6583,
      "जीती": 6584,
      "मोटर": 6585,
      "बेरोज़": 6586,
      "डाले": 6587,
      "जूर": 6588,
      "महज": 6589,
      "जानने": 6590,
      "भरपूर": 6591,
      "अंजाम": 6592,
      "ग्लो": 6593,
      "निर्देशन": 6594,
      "भोज": 6595,
      "पहाड़ियों": 6596,
      "सेंसेक्स": 6597,
      "इमारतों": 6598,
      "क़ीमतें": 6599,
      "हॉकी": 6600,
      "हॉलीवुड": 6601,
      "क्यूबा": 6602,
      "थुरा": 6603,
      "अकेले": 6604,
      "महँगाई": 6605,
      "एसोसिए": 6606,
      "उछाल": 6607,
      "मार्क्सवादी": 6608,
      "300": 6609,
      "px": 6610,
      "अगु": 6611,
      "आह्": 6612,
      "आखिरी": 6613,
      "टसन": 6614,
      "त्यो": 6615,
      "धुर": 6616,
      "धूम": 6617,
      "नू": 6618,
      "ब०": 6619,
      "बया": 6620,
      "बधा": 6621,
      "बजाय": 6622,
      "सश": 6623,
      "सहारा": 6624,
      "२५": 6625,
      "केल": 6626,
      "ारों": 6627,
      "राँ": 6628,
      "राइस": 6629,
      "स्पर्": 6630,
      "ताला": 6631,
      "जियम": 6632,
      "निभाई": 6633,
      "दीव": 6634,
      "क्षर": 6635,
      "हिक": 6636,
      "हिम्मत": 6637,
      "संस्कार": 6638,
      "स्तरीय": 6639,
      "चावला": 6640,
      "वीज़ा": 6641,
      "पीने": 6642,
      "शियर": 6643,
      "स्थायी": 6644,
      "बताती": 6645,
      "शीत": 6646,
      "यूँ": 6647,
      "चौके": 6648,
      "भूख": 6649,
      "गिरि": 6650,
      "रुपये": 6651,
      "थिए": 6652,
      "1973": 6653,
      "1975": 6654,
      "उत्पाद": 6655,
      "व्यक्तिगत": 6656,
      "गंभीरता": 6657,
      "घुड": 6658,
      "कुरु": 6659,
      "चार्ज": 6660,
      "मेनन": 6661,
      "फ़ुट": 6662,
      "बरेली": 6663,
      "बढ़ोत्तरी": 6664,
      "सईद": 6665,
      "ड्राइवर": 6666,
      "शिल्पा": 6667,
      "साहिब": 6668,
      "बेसबॉल": 6669,
      "सक्षम": 6670,
      "संवेदनशील": 6671,
      "65": 6672,
      "as": 6673,
      "अना": 6674,
      "अरु": 6675,
      "अतरी": 6676,
      "उतना": 6677,
      "कस": 6678,
      "ढलान": 6679,
      "नतम": 6680,
      "पिक": 6681,
      "फंसे": 6682,
      "बम्": 6683,
      "मथुरा": 6684,
      "लम्": 6685,
      "लारा": 6686,
      "शहरी": 6687,
      "सभ": 6688,
      "ोला": 6689,
      "ारु": 6690,
      "काँ": 6691,
      "काठ": 6692,
      "र्ल": 6693,
      "लेक": 6694,
      "गान": 6695,
      "लांग": 6696,
      "अनो": 6697,
      "ित्र": 6698,
      "विच": 6699,
      "निग": 6700,
      "होट": 6701,
      "हिद": 6702,
      "मिश्रा": 6703,
      "संधान": 6704,
      "सम्रा": 6705,
      "वारि": 6706,
      "म्भ": 6707,
      "मोहाली": 6708,
      "च्छ": 6709,
      "त्सव": 6710,
      "सोना": 6711,
      "जैसल": 6712,
      "परिस्थितियों": 6713,
      "प्राणा": 6714,
      "गिरे": 6715,
      "हनु": 6716,
      "महानिदेशक": 6717,
      "साम्रा": 6718,
      "घटनाएँ": 6719,
      "पालन": 6720,
      "हेली": 6721,
      "१९३": 6722,
      "अंतर्राष्ट्रीय": 6723,
      "महाराजा": 6724,
      "रॉबर्ट": 6725,
      "आयोज": 6726,
      "फ़ोर्ड": 6727,
      "ूर‌": 6728,
      "धर्मनिरपेक्ष": 6729,
      "and": 6730,
      "क्रामक": 6731,
      "टैक्स": 6732,
      "पॉलि": 6733,
      "इन्हीं": 6734,
      "अजमल": 6735,
      "शौक": 6736,
      "किस्म": 6737,
      "तारापुर": 6738,
      "ंसीसी": 6739,
      "तिब्ब": 6740,
      "स्थिरता": 6741,
      "समर्पण": 6742,
      "वाहाटी": 6743,
      "फुलवारीशरीफ़": 6744,
      "आह्वान": 6745,
      "he": 6746,
      "ro": 6747,
      "ंसर": 6748,
      "अमीर": 6749,
      "आधे": 6750,
      "खल": 6751,
      "खरा": 6752,
      "खून": 6753,
      "बख़": 6754,
      "बखरी": 6755,
      "भय": 6756,
      "सराह": 6757,
      "ौला": 6758,
      "काव्य": 6759,
      "प्रस्तु": 6760,
      "वाणि": 6761,
      "पाती": 6762,
      "बीआई": 6763,
      "ंडर": 6764,
      "मैथ": 6765,
      "चाल": 6766,
      "मेक": 6767,
      "रोली": 6768,
      "ंदु": 6769,
      "मोड़": 6770,
      "गुवाहाटी": 6771,
      "प्रतिबद्ध": 6772,
      "ब्लू": 6773,
      "अनुसंधान": 6774,
      "बढ़ता": 6775,
      "प्राय": 6776,
      "महेश": 6777,
      "ब्रै": 6778,
      "दारों": 6779,
      "तुम्": 6780,
      "हेलिकॉ": 6781,
      "उठाना": 6782,
      "ग्रैंड": 6783,
      "भुवने": 6784,
      "कूट": 6785,
      "बरामद": 6786,
      "मकसद": 6787,
      "हरिवंश": 6788,
      "सूरज": 6789,
      "प०मनि": 6790,
      "प्लेस": 6791,
      "छूट": 6792,
      "तूफ़ान": 6793,
      "जर्मन": 6794,
      "कस्बा": 6795,
      "हसीना": 6796,
      "हड़ताल": 6797,
      "ज़बरदस्त": 6798,
      "स्कॉट": 6799,
      "ऑफ़िस": 6800,
      "46": 6801,
      "85": 6802,
      "ge": 6803,
      "अवार्ड": 6804,
      "आत्": 6805,
      "आस्ट्रेलिया": 6806,
      "आलम": 6807,
      "इंद्र": 6808,
      "खों": 6809,
      "गर्म": 6810,
      "टरी": 6811,
      "बस्ती": 6812,
      "ौं": 6813,
      "सेव": 6814,
      "जापानी": 6815,
      "नियो": 6816,
      "होली": 6817,
      "दाल": 6818,
      "ख़ार": 6819,
      "गढ़ी": 6820,
      "ऊँचे": 6821,
      "द्दी": 6822,
      "श्वे": 6823,
      "डीआर": 6824,
      "अबतक": 6825,
      "ग़रीबी": 6826,
      "मतों": 6827,
      "सार्": 6828,
      "बुनेर": 6829,
      "बुलाया": 6830,
      "पटनायक": 6831,
      "अफ़गानिस्तान": 6832,
      "खुल": 6833,
      "न्यूनतम": 6834,
      "दिखाने": 6835,
      "1979": 6836,
      "महाराज": 6837,
      "अवधी": 6838,
      "प्रयासों": 6839,
      "कानून": 6840,
      "शांतिपूर्ण": 6841,
      "श्रेय": 6842,
      "्तियारपुर": 6843,
      "मनाया": 6844,
      "इसराइली": 6845,
      "्रेंच": 6846,
      "हिंदुओं": 6847,
      "इलेवन": 6848,
      "तत्कालीन": 6849,
      "राज़ी": 6850,
      "सत्यम": 6851,
      "बेचने": 6852,
      "बँटवारे": 6853,
      "स्रोत": 6854,
      "बछवारा": 6855,
      "सफेद": 6856,
      "हफ्ते": 6857,
      "बेरोज़गारी": 6858,
      "त्योहार": 6859,
      "जैसलमेर": 6860,
      "वाणिज्य": 6861,
      "भुवनेश्वर": 6862,
      "ia": 6863,
      "ँसी": 6864,
      "कमि": 6865,
      "चंडी": 6866,
      "जद": 6867,
      "जड़": 6868,
      "पवित": 6869,
      "बजर": 6870,
      "मस": 6871,
      "मंग": 6872,
      "हण": 6873,
      "ूरिया": 6874,
      "नेश": 6875,
      "नेपाली": 6876,
      "नामो": 6877,
      "प्रश्न": 6878,
      "बाबा": 6879,
      "लिखे": 6880,
      "लिंगा": 6881,
      "निय": 6882,
      "निवासी": 6883,
      "पाएँगे": 6884,
      "हिन": 6885,
      "रहें": 6886,
      "मेक्सिको": 6887,
      "मारने": 6888,
      "दुबई": 6889,
      "गुडि": 6890,
      "ग़ज़ा": 6891,
      "नैतिक": 6892,
      "ब्ला": 6893,
      "श्रीवास्तव": 6894,
      "नामों": 6895,
      "चौथा": 6896,
      "धारियों": 6897,
      "कॉम": 6898,
      "भेजी": 6899,
      "गुरू": 6900,
      "1970": 6901,
      "देवता": 6902,
      "विवादित": 6903,
      "गणराज्य": 6904,
      "कमाई": 6905,
      "गर्व": 6906,
      "आसमान": 6907,
      "अख़बारों": 6908,
      "शिविरों": 6909,
      "कब्ज़ा": 6910,
      "धमकी": 6911,
      "अत्यंत": 6912,
      "मद्दे": 6913,
      "गोलाबारी": 6914,
      "डायरेक्टर": 6915,
      "साम्राज्य": 6916,
      "मैथ्यू": 6917,
      "41": 6918,
      "42": 6919,
      "ce": 6920,
      "अँ": 6921,
      "उथ": 6922,
      "जरी": 6923,
      "झलक": 6924,
      "दंड": 6925,
      "भद्र": 6926,
      "शत्र": 6927,
      "सँ": 6928,
      "ूप": 6929,
      "लेती": 6930,
      "गाड़": 6931,
      "लाए": 6932,
      "वाया": 6933,
      "हास्य": 6934,
      "देनी": 6935,
      "मुहा": 6936,
      "क्षी": 6937,
      "उत्तराखंड": 6938,
      "मंत": 6939,
      "स्टन": 6940,
      "चीज़ों": 6941,
      "युग": 6942,
      "खेड़ा": 6943,
      "खेलों": 6944,
      "सोनी": 6945,
      "दर्शा": 6946,
      "चरित्र": 6947,
      "पैरों": 6948,
      "बोनस": 6949,
      "पोर्": 6950,
      "पर्दे": 6951,
      "ज़िंदा": 6952,
      "अंतर्गत": 6953,
      "समझते": 6954,
      "कुलम": 6955,
      "फ़ेड": 6956,
      "विमानों": 6957,
      "पहाड़ों": 6958,
      "ज़ोरदार": 6959,
      "इंटरनेशनल": 6960,
      "फेर": 6961,
      "हलसी": 6962,
      "नवम्बर": 6963,
      "श्याम": 6964,
      "पलट": 6965,
      "महसूद": 6966,
      "टैक्सी": 6967,
      "उतरे": 6968,
      "मेहमान": 6969,
      "दशकों": 6970,
      "ब्लॉक": 6971,
      "ग्लेशियर": 6972,
      "इकट्ठा": 6973,
      "पूँजी": 6974,
      "डिज़ाइन": 6975,
      "लैंगिक": 6976,
      "हस्ताक्षर": 6977,
      "थिएटर": 6978,
      "होटलों": 6979,
      "प्राणायाम": 6980,
      "ist": 6981,
      "आगा": 6982,
      "आक्रामक": 6983,
      "घबरा": 6984,
      "टके": 6985,
      "दरिया": 6986,
      "दलाई": 6987,
      "पने": 6988,
      "य्य": 6989,
      "काजी": 6990,
      "काबुल": 6991,
      "नेस": 6992,
      "एकदम": 6993,
      "गाड़ियों": 6994,
      "सेल": 6995,
      "कोर": 6996,
      "देरी": 6997,
      "सीरिया": 6998,
      "ज़माने": 6999,
      "त्ते": 7000,
      "निम्": 7001,
      "ख़्ता": 7002,
      "जोर": 7003,
      "टाल": 7004,
      "आपसे": 7005,
      "सैर": 7006,
      "लगाना": 7007,
      "चेहरा": 7008,
      "सोस": 7009,
      "गुजर": 7010,
      "बुलाई": 7011,
      "शेल": 7012,
      "दारक": 7013,
      "फ़ैशन": 7014,
      "ंटनी": 7015,
      "१९४": 7016,
      "फाबाद": 7017,
      "रिपोर्टों": 7018,
      "जितने": 7019,
      "मज़दूर": 7020,
      "नवनिर्माण": 7021,
      "प्रस्तावित": 7022,
      "अंदाज़ा": 7023,
      "बिगड़": 7024,
      "ग्वांता": 7025,
      "प्रतीत": 7026,
      "केन्द्रीय": 7027,
      "पड़ोसी": 7028,
      "रवींद्र": 7029,
      "पायलट": 7030,
      "गोरखपुर": 7031,
      "सभ्यता": 7032,
      "चंडीगढ़": 7033,
      "शत्रु": 7034,
      "अद": 7035,
      "इफ़्त": 7036,
      "जया": 7037,
      "ण्य": 7038,
      "तलाई": 7039,
      "नक़": 7040,
      "पशु": 7041,
      "बंट": 7042,
      "रफ़्तार": 7043,
      "यानि": 7044,
      "विमर्": 7045,
      "मिल्": 7046,
      "संचा": 7047,
      "संसाधन": 7048,
      "बादल": 7049,
      "समक्ष": 7050,
      "समलैंगिक": 7051,
      "टाइट": 7052,
      "ष्क": 7053,
      "2011": 7054,
      "आईआर": 7055,
      "नौली": 7056,
      "मतगणना": 7057,
      "लंबित": 7058,
      "घोटा": 7059,
      "चैम्": 7060,
      "बच्ची": 7061,
      "लुओं": 7062,
      "ंटिक": 7063,
      "लड़कियों": 7064,
      "जरनैल": 7065,
      "तिहाई": 7066,
      "व्याव": 7067,
      "लॉर्ड": 7068,
      "पानदारक": 7069,
      "खरीद": 7070,
      "आदिवासी": 7071,
      "मांगी": 7072,
      "ent": 7073,
      "संस्करण": 7074,
      "तोड़ने": 7075,
      "III": 7076,
      "रिश्तों": 7077,
      "झुग्": 7078,
      "एंड्र": 7079,
      "क़ैदियों": 7080,
      "अस्तूरिया": 7081,
      "डब्ल्यू": 7082,
      "लश्कर": 7083,
      "कच्चे": 7084,
      "रवैया": 7085,
      "रुझान": 7086,
      "रोमांचक": 7087,
      "अपेक्षा": 7088,
      "बधाई": 7089,
      "सम्राट": 7090,
      "बजरंग": 7091,
      "विमर्श": 7092,
      "DI": 7093,
      "कक्ष": 7094,
      "कक्षा": 7095,
      "कपड़": 7096,
      "चश्": 7097,
      "नकारात्मक": 7098,
      "सऊ": 7099,
      "सख़्त": 7100,
      "हंगा": 7101,
      "ैन": 7102,
      "राल": 7103,
      "स्का": 7104,
      "प्रयुक्त": 7105,
      "माही": 7106,
      "जिंग": 7107,
      "ज़रा": 7108,
      "लीन": 7109,
      "निन": 7110,
      "दिखे": 7111,
      "दिसम्": 7112,
      "तिर": 7113,
      "तिरु": 7114,
      "संशो": 7115,
      "रहित": 7116,
      "रिकार्ड": 7117,
      "ख़ून": 7118,
      "सरों": 7119,
      "मैक्सिको": 7120,
      "रोज": 7121,
      "मानो": 7122,
      "पारं": 7123,
      "मुखी": 7124,
      "चिन्न": 7125,
      "शिवा": 7126,
      "वर्स": 7127,
      "सून": 7128,
      "धानिक": 7129,
      "चलती": 7130,
      "संगकारा": 7131,
      "उपनाम": 7132,
      "चाहेंगे": 7133,
      "बनता": 7134,
      "बनती": 7135,
      "वैसा": 7136,
      "गिनती": 7137,
      "महादेव": 7138,
      "अफ़सोस": 7139,
      "प्पी": 7140,
      "इंट": 7141,
      "अंश": 7142,
      "समझने": 7143,
      "ब्रिगे": 7144,
      "धन्य": 7145,
      "ट्रि": 7146,
      "मंड्स": 7147,
      "150": 7148,
      "ब्रायन": 7149,
      "विद्या": 7150,
      "1960": 7151,
      "सोचते": 7152,
      "ारूढ़": 7153,
      "लिखने": 7154,
      "शक्तिशाली": 7155,
      "संबोधन": 7156,
      "उतनी": 7157,
      "लोकप्रियता": 7158,
      "पॉप": 7159,
      "सिखों": 7160,
      "तकनीकी": 7161,
      "राइफ़": 7162,
      "कॉन्फ़्रेंस": 7163,
      "चढ़ाव": 7164,
      "बंदरगाह": 7165,
      "प्रशंसकों": 7166,
      "पद्म": 7167,
      "महोत्सव": 7168,
      "एएफ़पी": 7169,
      "अद्भुत": 7170,
      "बम्बोर": 7171,
      "मद्देनज़र": 7172,
      "अस्तूरियास": 7173,
      "47": 7174,
      "58": 7175,
      "500": 7176,
      "ँव": 7177,
      "चोर": 7178,
      "किमी": 7179,
      "तावास": 7180,
      "फ़र्": 7181,
      "फ़िक": 7182,
      "विद्": 7183,
      "पाता": 7184,
      "पाउंड": 7185,
      "मुज़": 7186,
      "तेतिहा": 7187,
      "संयो": 7188,
      "मेघा": 7189,
      "वेन": 7190,
      "रेड्डी": 7191,
      "गेल": 7192,
      "वीवीएस": 7193,
      "पीछा": 7194,
      "रायबरेली": 7195,
      "दूतावास": 7196,
      "तालमेल": 7197,
      "बोले": 7198,
      "जुटे": 7199,
      "दिलाया": 7200,
      "वैधानिक": 7201,
      "राजनीतिज्ञ": 7202,
      "उम्मीदें": 7203,
      "सर्दियों": 7204,
      "समझता": 7205,
      "1976": 7206,
      "एंजे": 7207,
      "ज्ञात": 7208,
      "दुर्ग": 7209,
      "गंगो": 7210,
      "विधायकों": 7211,
      "1969": 7212,
      "विस्फोटक": 7213,
      "संस्कृत": 7214,
      "दिवस": 7215,
      "निराश": 7216,
      "आकर्षक": 7217,
      "सौंपा": 7218,
      "दावेदार": 7219,
      "शास्त्रीय": 7220,
      "रोमांच": 7221,
      "विज्ञापन": 7222,
      "ठहरने": 7223,
      "डेल्ही": 7224,
      "दैनिक": 7225,
      "अफ़्रीकी": 7226,
      "मार्टिन": 7227,
      "सराहना": 7228,
      "कपड़ों": 7229,
      "दिसम्बर": 7230,
      "52": 7231,
      "63": 7232,
      "CT": 7233,
      "tt": 7234,
      "ंकर": 7235,
      "इन्होंने": 7236,
      "ऑटो": 7237,
      "चट्टी": 7238,
      "तड़": 7239,
      "पिया": 7240,
      "रज": 7241,
      "शून": 7242,
      "६०": 7243,
      "ेंस": 7244,
      "र्निया": 7245,
      "एक्ट": 7246,
      "नायन": 7247,
      "कोठ": 7248,
      "स्से": 7249,
      "लाम": 7250,
      "माण": 7251,
      "हामिद": 7252,
      "बाब": 7253,
      "लिप": 7254,
      "विलियम": 7255,
      "निका": 7256,
      "मुफ़्त": 7257,
      "मुक्के": 7258,
      "मिनी": 7259,
      "संन्यास": 7260,
      "दानापुर": 7261,
      "कहे": 7262,
      "वेब": 7263,
      "पूडि": 7264,
      "रेन": 7265,
      "सूफ़ी": 7266,
      "गोर": 7267,
      "गुप्ता": 7268,
      "मन्त": 7269,
      "ब्स": 7270,
      "घाटे": 7271,
      "छाया": 7272,
      "छापा": 7273,
      "बढ़कर": 7274,
      "कैमरा": 7275,
      "टिव": 7276,
      "ज़रुरी": 7277,
      "खुला": 7278,
      "एसएम": 7279,
      "हराकर": 7280,
      "ंकित": 7281,
      "कुमारी": 7282,
      "फोड़": 7283,
      "बढ़ाया": 7284,
      "ार्थी": 7285,
      "नेटवर्": 7286,
      "आँकड़े": 7287,
      "अल्फ़ा": 7288,
      "पर्वतारो": 7289,
      "1962": 7290,
      "उपलब्धि": 7291,
      "साइमंड्स": 7292,
      "जहाज़ों": 7293,
      "डेमोक्रेट": 7294,
      "बहाली": 7295,
      "किस्मत": 7296,
      "उत्साहित": 7297,
      "दस्तावेज़": 7298,
      "पदार्थों": 7299,
      "निष्पक्ष": 7300,
      "REDI": 7301,
      "RECT": 7302,
      "बंदूकधारियों": 7303,
      "ठिकानों": 7304,
      "अल्पसंख्यक": 7305,
      "भंडार": 7306,
      "सागरीय": 7307,
      "सिडनी": 7308,
      "दिक्कत": 7309,
      "प्रतिद्वंद्वी": 7310,
      "मिर्ज़ा": 7311,
      "अकादमी": 7312,
      "सफ़ाई": 7313,
      "बख़्तियारपुर": 7314,
      "पवित्र": 7315,
      "आगामी": 7316,
      "शून्य": 7317,
      "REDIRECT": 7318,
      "un": 7319,
      "अरुण": 7320,
      "अवैध": 7321,
      "एंगे": 7322,
      "ओम": 7323,
      "गॊ": 7324,
      "घई": 7325,
      "घड़ी": 7326,
      "चन्द्र": 7327,
      "ढु": 7328,
      "थियों": 7329,
      "नक": 7330,
      "पन्न": 7331,
      "बचे": 7332,
      "ारं": 7333,
      "राइट": 7334,
      "कोज़ी": 7335,
      "प्रका": 7336,
      "बाइ": 7337,
      "सीज़न": 7338,
      "परब": 7339,
      "लियो": 7340,
      "अन्तर": 7341,
      "कुं": 7342,
      "लोजपा": 7343,
      "संदर्भ": 7344,
      "दाखिल": 7345,
      "रिज": 7346,
      "बारूदी": 7347,
      "साथियों": 7348,
      "जनगणना": 7349,
      "चिट्": 7350,
      "शिला": 7351,
      "सबको": 7352,
      "पेलिन": 7353,
      "बोलने": 7354,
      "जूता": 7355,
      "सुरक्षाकर्मी": 7356,
      "धीमी": 7357,
      "कटरी": 7358,
      "बैठकर": 7359,
      "पक्षियों": 7360,
      "बूझ": 7361,
      "सिर्फ": 7362,
      "ट्रक": 7363,
      "अवशेष": 7364,
      "टूरि": 7365,
      "पकड़ा": 7366,
      "वरीयता": 7367,
      "अर्जुन": 7368,
      "करोड़ों": 7369,
      "संस्थापक": 7370,
      "सत्ताधारी": 7371,
      "वॉशिंगटन": 7372,
      "जंगली": 7373,
      "दुर्घटनाग्रस्त": 7374,
      "मनोहर": 7375,
      "संस्थानों": 7376,
      "मैनेजर": 7377,
      "बीजेडी": 7378,
      "गार्डन": 7379,
      "विश्लेषक": 7380,
      "नजारा": 7381,
      "अटला": 7382,
      "नायडू": 7383,
      "ब्रह्म": 7384,
      "सलीम": 7385,
      "दुल्हिन": 7386,
      "सैलानियों": 7387,
      "ग्वांतानामो": 7388,
      "इफ़्ति": 7389,
      "सऊदी": 7390,
      "दुल्हिनबाजार": 7391,
      "अजित": 7392,
      "आमद": 7393,
      "आधी": 7394,
      "आएँ": 7395,
      "आदर्श": 7396,
      "इया": 7397,
      "इकाई": 7398,
      "ओपे": 7399,
      "खार": 7400,
      "नमू": 7401,
      "पड": 7402,
      "बस्त": 7403,
      "बदौलत": 7404,
      "भान": 7405,
      "मस्त": 7406,
      "लती": 7407,
      "शनी": 7408,
      "शरिया": 7409,
      "ूली": 7410,
      "२२": 7411,
      "्तिक": 7412,
      "कीं": 7413,
      "कीर": 7414,
      "स्वर्ग": 7415,
      "लाइंस": 7416,
      "वामद": 7417,
      "सीने": 7418,
      "फ़ना": 7419,
      "विंबल": 7420,
      "निचले": 7421,
      "मिलि": 7422,
      "सिक्": 7423,
      "सिद्धा": 7424,
      "दादा": 7425,
      "कहां": 7426,
      "ंडि": 7427,
      "शाहिद": 7428,
      "मेहता": 7429,
      "वेयर": 7430,
      "रेस्त": 7431,
      "पुष्": 7432,
      "पियर": 7433,
      "स्टू": 7434,
      "मोर": 7435,
      "हिन्दु": 7436,
      "अमित": 7437,
      "दियाँ": 7438,
      "आपस": 7439,
      "चौकी": 7440,
      "महबू": 7441,
      "महत्या": 7442,
      "बनते": 7443,
      "कार्यवाही": 7444,
      "महामारी": 7445,
      "करीना": 7446,
      "अर्ज़ी": 7447,
      "ट्टा": 7448,
      "दुर्भाग्य": 7449,
      "एफ़आईआर": 7450,
      "पहुँचाया": 7451,
      "कृष्णन": 7452,
      "व्यक्तित्व": 7453,
      "आसिफाबाद": 7454,
      "पकड़ने": 7455,
      "दुकानें": 7456,
      "गायिका": 7457,
      "झड़प": 7458,
      "मुकद": 7459,
      "हथ्न": 7460,
      "गँवा": 7461,
      "सत्तारूढ़": 7462,
      "दुश्मन": 7463,
      "एसोसिएशन": 7464,
      "हनुमान": 7465,
      "मुक्केबाजी": 7466,
      "परबत्ता": 7467,
      "वामदलों": 7468,
      "विंबलडन": 7469,
      "आसिफाबाद‌": 7470,
      "87": 7471,
      "ँस": 7472,
      "अभाव": 7473,
      "ईस": 7474,
      "उबर": 7475,
      "एआई": 7476,
      "घने": 7477,
      "जश्न": 7478,
      "डों": 7479,
      "पल्ली": 7480,
      "फर्": 7481,
      "मछु": 7482,
      "यमुना": 7483,
      "लक्षण": 7484,
      "हंस": 7485,
      "ॉन": 7486,
      "०II": 7487,
      "रावल": 7488,
      "किशोर": 7489,
      "नाते": 7490,
      "प्रचलित": 7491,
      "वाड़": 7492,
      "माद": 7493,
      "बाढ": 7494,
      "न्थ": 7495,
      "साठ": 7496,
      "दिनेश": 7497,
      "कुआँ": 7498,
      "भागी": 7499,
      "रियम": 7500,
      "शायर": 7501,
      "रेख": 7502,
      "पुल्स": 7503,
      "बेटा": 7504,
      "पीपुल्स": 7505,
      "बैठा": 7506,
      "प्रतिमा": 7507,
      "पेयी": 7508,
      "घाटा": 7509,
      "बुज़ु": 7510,
      "महे": 7511,
      "दिलाने": 7512,
      "बनकर": 7513,
      "ज्ज": 7514,
      "खुली": 7515,
      "पहुँचते": 7516,
      "सिर्पूर": 7517,
      "रॉस": 7518,
      "लौटा": 7519,
      "विचारों": 7520,
      "प्रोजे": 7521,
      "अभिनेत्र": 7522,
      "मलया": 7523,
      "शवों": 7524,
      "सहयोगियों": 7525,
      "गोलमाल": 7526,
      "भौतिक": 7527,
      "मुकाबला": 7528,
      "आरोही": 7529,
      "क़ब्ज़ा": 7530,
      "क्रिकेटर": 7531,
      "प्रतिष्ठित": 7532,
      "ड्रोन": 7533,
      "आत्महत्या": 7534,
      "राइफ़ल्स": 7535,
      "नायनमार": 7536,
      "प्रकाशन": 7537,
      "इफ़्तिख़ार": 7538,
      "हथ्नूर": 7539,
      "बुज़ुर्ग": 7540,
      "700": 7541,
      "us": 7542,
      "ंदे": 7543,
      "अन्ना": 7544,
      "आंग": 7545,
      "आधा": 7546,
      "खिर": 7547,
      "गले": 7548,
      "चलिए": 7549,
      "चमक": 7550,
      "ड्रे": 7551,
      "ढौ": 7552,
      "ण्टी": 7553,
      "नहर": 7554,
      "पढ़ा": 7555,
      "बृ": 7556,
      "मदर": 7557,
      "मसल": 7558,
      "शय": 7559,
      "सतह": 7560,
      "ूं": 7561,
      "ैशी": 7562,
      "्रह": 7563,
      "स्क्री": 7564,
      "प्रच": 7565,
      "लायक": 7566,
      "वादे": 7567,
      "बाली": 7568,
      "राजन": 7569,
      "लिहा": 7570,
      "लियर": 7571,
      "लीफ़": 7572,
      "विलिय": 7573,
      "कार्यों": 7574,
      "कार्तिक": 7575,
      "निरोधक": 7576,
      "मुज": 7577,
      "तेज": 7578,
      "भाल": 7579,
      "संभाव": 7580,
      "बिन्": 7581,
      "सियम": 7582,
      "रिन": 7583,
      "बरत": 7584,
      "वर्ध": 7585,
      "ंधर": 7586,
      "फिल्मी": 7587,
      "रूसी": 7588,
      "सबौर": 7589,
      "सोने": 7590,
      "बैतुल्ला": 7591,
      "भिंड": 7592,
      "पेस": 7593,
      "पेरिस": 7594,
      "देखता": 7595,
      "नियां": 7596,
      "बुजु": 7597,
      "चौथान": 7598,
      "थोड़े": 7599,
      "गिकी": 7600,
      "ग्नि": 7601,
      "अगवा": 7602,
      "बर्ग": 7603,
      "अवस्था": 7604,
      "स्वभाव": 7605,
      "लौटे": 7606,
      "ट्टि": 7607,
      "दुर्गा": 7608,
      "वाहनों": 7609,
      "सूरती": 7610,
      "मल्टी": 7611,
      "यूनिवर्सिटी": 7612,
      "the": 7613,
      "निवेशकों": 7614,
      "गतिविधियाँ": 7615,
      "पढ़ने": 7616,
      "स्टाइल": 7617,
      "अस्तित्व": 7618,
      "कब्ज़े": 7619,
      "कल्पना": 7620,
      "पंद्रहवीं": 7621,
      "मणिपुर": 7622,
      "फ़लस्तीनी": 7623,
      "कहलाता": 7624,
      "चैंपियन": 7625,
      "वाजपेयी": 7626,
      "आयोजकों": 7627,
      "पारंपरिक": 7628,
      "सिद्धांत": 7629,
      "49": 7630,
      "55": 7631,
      "li": 7632,
      "आला": 7633,
      "आवास": 7634,
      "इज़": 7635,
      "एलि": 7636,
      "ऑल": 7637,
      "औसत": 7638,
      "कूल": 7639,
      "गग": 7640,
      "ग्यार": 7641,
      "पडा": 7642,
      "बराय": 7643,
      "मझ": 7644,
      "्तर": 7645,
      "किसे": 7646,
      "गाई": 7647,
      "बाढ़": 7648,
      "सीडी": 7649,
      "फ़्टी": 7650,
      "लीप": 7651,
      "मुरा": 7652,
      "मिक्स": 7653,
      "मैक": 7654,
      "कियाँ": 7655,
      "मोल": 7656,
      "मोटा": 7657,
      "पीट": 7658,
      "टेघरा": 7659,
      "क्षेप": 7660,
      "आईएसआई": 7661,
      "चेक": 7662,
      "पोत": 7663,
      "छाड़": 7664,
      "कैमरे": 7665,
      "डियर": 7666,
      "दरलैंड": 7667,
      "जानकारों": 7668,
      "बच्चा": 7669,
      "समझना": 7670,
      "घटनाक्रम": 7671,
      "ग्रंथ": 7672,
      "लेखिका": 7673,
      "बॉस": 7674,
      "बॉम्बे": 7675,
      "यादगार": 7676,
      "अलौली": 7677,
      "अर्था": 7678,
      "लौटने": 7679,
      "कानपुर": 7680,
      "शेयरों": 7681,
      "आत्मविश्वास": 7682,
      "सीपीआई": 7683,
      "प्रत्येक": 7684,
      "प्रतीक": 7685,
      "ठुकरा": 7686,
      "तथ्य": 7687,
      "दफ़्तर": 7688,
      "अरुणा": 7689,
      "स्कॉटलैंड": 7690,
      "संभावित": 7691,
      "53": 7692,
      "et": 7693,
      "gh": 7694,
      "अपर": 7695,
      "अती": 7696,
      "ऋषि": 7697,
      "एला": 7698,
      "चन्": 7699,
      "झों": 7700,
      "दया": 7701,
      "दबा": 7702,
      "दस्ते": 7703,
      "फ्र": 7704,
      "वज़न": 7705,
      "ह्यू": 7706,
      "ुम": 7707,
      "२६": 7708,
      "किलों": 7709,
      "सेटों": 7710,
      "प्रौ": 7711,
      "वास्तु": 7712,
      "वाइंट": 7713,
      "मास्टर": 7714,
      "नींद": 7715,
      "सावली": 7716,
      "लिटी": 7717,
      "क्वा": 7718,
      "विहार": 7719,
      "पाट": 7720,
      "होम": 7721,
      "तिन": 7722,
      "तिमाही": 7723,
      "सिंगा": 7724,
      "ख़ै": 7725,
      "मेडी": 7726,
      "रोटी": 7727,
      "ंद्रा": 7728,
      "वारंट": 7729,
      "म्मा": 7730,
      "ंतर": 7731,
      "सुनील": 7732,
      "शिमला": 7733,
      "निर्दलीय": 7734,
      "गोलियों": 7735,
      "नौका": 7736,
      "मौलाना": 7737,
      "पोटा": 7738,
      "कैप्ट": 7739,
      "डेजा": 7740,
      "चौहान": 7741,
      "चाहें": 7742,
      "भूगोल": 7743,
      "ज्वाला": 7744,
      "नगरपालिका": 7745,
      "जवाहर": 7746,
      "टोला": 7747,
      "शुभ": 7748,
      "सतौर": 7749,
      "जनतांत्रिक": 7750,
      "स्पद": 7751,
      "जनादेश": 7752,
      "फोटो": 7753,
      "अलकन": 7754,
      "रोकना": 7755,
      "निर्देशित": 7756,
      "लॉस": 7757,
      "सड़कें": 7758,
      "आँकड़ों": 7759,
      "मूल्य": 7760,
      "1964": 7761,
      "फ्लू": 7762,
      "स्कूलों": 7763,
      "आदित्य": 7764,
      "सुविधाएँ": 7765,
      "सायिक": 7766,
      "जैनथ": 7767,
      "पहुंचे": 7768,
      "ार्थियों": 7769,
      "मंज़ूर": 7770,
      "स्ट्रिया": 7771,
      "बीएसई": 7772,
      "थाईलैंड": 7773,
      "जानवरों": 7774,
      "मछली": 7775,
      "फतेहपुर": 7776,
      "चिरंजी": 7777,
      "गोपालपुर": 7778,
      "उच्चायुक्त": 7779,
      "अगुआई": 7780,
      "निगरानी": 7781,
      "निम्न": 7782,
      "संशोधन": 7783,
      "मेघालय": 7784,
      "गंगोत्री": 7785,
      "अलकनंदा": 7786,
      "59": 7787,
      "ad": 7788,
      "ak": 7789,
      "ul": 7790,
      "ंचा": 7791,
      "आशी": 7792,
      "जडेजा": 7793,
      "दत्ता": 7794,
      "धियों": 7795,
      "नूर": 7796,
      "पमेंट": 7797,
      "फ्रेंस": 7798,
      "भट": 7799,
      "भगत": 7800,
      "लस": 7801,
      "षिक": 7802,
      "हुर": 7803,
      "०५": 7804,
      "२३": 7805,
      "२७": 7806,
      "कालोनी": 7807,
      "नेई": 7808,
      "गाम": 7809,
      "नाल": 7810,
      "नामी": 7811,
      "प्रवासी": 7812,
      "साहे": 7813,
      "दीर": 7814,
      "संवैधानिक": 7815,
      "रिटा": 7816,
      "बीवी": 7817,
      "चाहूँ": 7818,
      "मोती": 7819,
      "बेज्": 7820,
      "जोल": 7821,
      "चिस्तान": 7822,
      "क्ता": 7823,
      "निकला": 7824,
      "डाली": 7825,
      "स्थाई": 7826,
      "अनुप": 7827,
      "घात": 7828,
      "पैठ": 7829,
      "चौड़ा": 7830,
      "टिच": 7831,
      "धारणा": 7832,
      "कर्नल": 7833,
      "क़ायम": 7834,
      "कार्बन": 7835,
      "महाभारत": 7836,
      "एसएस": 7837,
      "पश्चा": 7838,
      "एनसी": 7839,
      "प्रेरित": 7840,
      "चोरी": 7841,
      "ध्वस्त": 7842,
      "पकवान": 7843,
      "धोखा": 7844,
      "विद्यु": 7845,
      "ऊपरी": 7846,
      "अल्वा": 7847,
      "पाएगा": 7848,
      "दिखती": 7849,
      "170": 7850,
      "त्याग": 7851,
      "प्रभावी": 7852,
      "प्रतिबंधित": 7853,
      "जोड़ता": 7854,
      "रॉयटर्स": 7855,
      "स्टीव": 7856,
      "विलासराव": 7857,
      "नियुक्ति": 7858,
      "कंधे": 7859,
      "दिमाग": 7860,
      "भट्टाचार": 7861,
      "अभियुक्तों": 7862,
      "म०ब०": 7863,
      "अ०व०": 7864,
      "अध्याय": 7865,
      "केरमेरि": 7866,
      "मांडू": 7867,
      "कूटनीति": 7868,
      "धन्यवाद": 7869,
      "प्रोजेक्ट": 7870,
      "मसलन": 7871,
      "चिरंजीवी": 7872,
      "400": 7873,
      "ow": 7874,
      "आमंत्र": 7875,
      "इनाम": 7876,
      "एफ": 7877,
      "एंडी": 7878,
      "कपुर": 7879,
      "खिलाफ़": 7880,
      "गतान": 7881,
      "चक्कर": 7882,
      "झो": 7883,
      "ड्स": 7884,
      "थक": 7885,
      "धपुर": 7886,
      "नट": 7887,
      "नदियों": 7888,
      "पका": 7889,
      "शनिक": 7890,
      "४०": 7891,
      "रात्रि": 7892,
      "नाना": 7893,
      "स्नो": 7894,
      "ताना": 7895,
      "वाकई": 7896,
      "राजदूत": 7897,
      "ज़ू": 7898,
      "पाय": 7899,
      "पायर": 7900,
      "रीढ़": 7901,
      "दीर्": 7902,
      "मिनि": 7903,
      "रिपोर्": 7904,
      "सरस्व": 7905,
      "कहकर": 7906,
      "ियाना": 7907,
      "वेदी": 7908,
      "सुक": 7909,
      "राष्ट्रवादी": 7910,
      "निर्दोष": 7911,
      "रुका": 7912,
      "चेरी": 7913,
      "गुण": 7914,
      "गुराड": 7915,
      "स्थानी": 7916,
      "अनुशासन": 7917,
      "पैलेस": 7918,
      "परिजनों": 7919,
      "भूति": 7920,
      "वहन": 7921,
      "गूंठ": 7922,
      "जयसूर्या": 7923,
      "प्स": 7924,
      "दक्षिणपूर्व": 7925,
      "बदली": 7926,
      "फूलों": 7927,
      "दिलशान": 7928,
      "स्वस्थ": 7929,
      "फ़ोर्स": 7930,
      "भुगतान": 7931,
      "पत्थ": 7932,
      "साइकिल": 7933,
      "छुट्टी": 7934,
      "वॉटसन": 7935,
      "हरुद्दीन": 7936,
      "शीर्षक": 7937,
      "दार्शनिक": 7938,
      "पॆद्द": 7939,
      "अज़हरुद्दीन": 7940,
      "दस्तावे": 7941,
      "साधनों": 7942,
      "फ्लोराइड": 7943,
      "इशारा": 7944,
      "मायने": 7945,
      "वार्षिक": 7946,
      "हाजीपुर": 7947,
      "जूर‌": 7948,
      "टाइटलर": 7949,
      "बेज्जूर‌": 7950,
      "भट्टाचार्य": 7951,
      "सरस्वती": 7952,
      "em": 7953,
      "hi": 7954,
      "pt": 7955,
      "अश्": 7956,
      "आवेदन": 7957,
      "एना": 7958,
      "घटी": 7959,
      "छक्के": 7960,
      "झटके": 7961,
      "भंग": 7962,
      "यारा": 7963,
      "सटे": 7964,
      "सतीश": 7965,
      "१००": 7966,
      "ारस्यूं": 7967,
      "कीनिया": 7968,
      "लेह": 7969,
      "वाडी": 7970,
      "वालिया": 7971,
      "माउ": 7972,
      "माइन": 7973,
      "मांस": 7974,
      "ल्हा": 7975,
      "ल्लॆ": 7976,
      "विपर": 7977,
      "गते": 7978,
      "कारगर": 7979,
      "दिलीप": 7980,
      "क्षति": 7981,
      "संयंत्र": 7982,
      "सिरे": 7983,
      "दाश्त": 7984,
      "वेल्लि": 7985,
      "जीवा": 7986,
      "पुणे": 7987,
      "यहूदी": 7988,
      "दोनि": 7989,
      "पिल": 7990,
      "जनसभा": 7991,
      "वर्षा": 7992,
      "सैलानी": 7993,
      "बैक": 7994,
      "बैंकिंग": 7995,
      "पैडु": 7996,
      "चलचित्र": 7997,
      "कैंसर": 7998,
      "उपहार": 7999,
      "टिन": 8000,
      "रखकर": 8001,
      "विश्वनाथ": 8002,
      "सांस": 8003,
      "टोरिया": 8004,
      "तैबा": 8005,
      "लुत्": 8006,
      "गिरफ्त": 8007,
      "आमने": 8008,
      "ग्रै": 8009,
      "प्रदर्शनकारी": 8010,
      "आतंकवादियों": 8011,
      "ग्राह": 8012,
      "प्रोड": 8013,
      "तरीका": 8014,
      "फिल्में": 8015,
      "शाहपुर": 8016,
      "दिखने": 8017,
      "गणेश": 8018,
      "लकड़ी": 8019,
      "व्यक्तियों": 8020,
      "खूबसूरती": 8021,
      "अमृतसर": 8022,
      "सुविधाओं": 8023,
      "स्ट्रीट": 8024,
      "बोलते": 8025,
      "मेनका": 8026,
      "द्योगिकी": 8027,
      "संतुलन": 8028,
      "शॉट": 8029,
      "अटकल": 8030,
      "गोंड": 8031,
      "अज़हर": 8032,
      "मलेरिया": 8033,
      "आपातकाल": 8034,
      "ख़रीदने": 8035,
      "आज़मगढ़": 8036,
      "ब्रॉड": 8037,
      "ब्रॉमली": 8038,
      "बुरे": 8039,
      "तत्वों": 8040,
      "स्टोरी": 8041,
      "माधव": 8042,
      "पेट्रोलियम": 8043,
      "सुलझाने": 8044,
      "प्रारंभिक": 8045,
      "पर्यवेक्षकों": 8046,
      "बयानों": 8047,
      "हेलीकॉ": 8048,
      "पॉलिटन": 8049,
      "मलयालम": 8050,
      "ग्यारह": 8051,
      "54": 8052,
      "62": 8053,
      "उड़िया": 8054,
      "एंटनी": 8055,
      "कपा": 8056,
      "ङ्": 8057,
      "जक": 8058,
      "टें": 8059,
      "तौ": 8060,
      "थन": 8061,
      "द०": 8062,
      "दहे": 8063,
      "धौ": 8064,
      "पली": 8065,
      "पत्त": 8066,
      "पवेलियन": 8067,
      "फट": 8068,
      "फरी": 8069,
      "फारसी": 8070,
      "बडे": 8071,
      "मय": 8072,
      "लक्": 8073,
      "शूल": 8074,
      "हें": 8075,
      "हवाला": 8076,
      "लेक्": 8077,
      "नात्मक": 8078,
      "स्‍": 8079,
      "स्लो": 8080,
      "स्नान": 8081,
      "प्रता": 8082,
      "प्रवी": 8083,
      "प्रबंध": 8084,
      "हाइ": 8085,
      "हीरा": 8086,
      "राजस्थानी": 8087,
      "देहा": 8088,
      "जावेद": 8089,
      "निशान": 8090,
      "इसने": 8091,
      "इसको": 8092,
      "पाइ": 8093,
      "मुडा": 8094,
      "मुहिम": 8095,
      "दीकी": 8096,
      "क्षु": 8097,
      "पुरम्": 8098,
      "सिस": 8099,
      "उत्तरकाशी": 8100,
      "पू०": 8101,
      "रेश": 8102,
      "जोश": 8103,
      "पीस": 8104,
      "तकलीफ़": 8105,
      "टेज": 8106,
      "टाउन": 8107,
      "आपसी": 8108,
      "वर्थ": 8109,
      "दुआ": 8110,
      "गोगरी": 8111,
      "बैरल": 8112,
      "छाप": 8113,
      "चलना": 8114,
      "चौथी": 8115,
      "दरगाह": 8116,
      "छोर": 8117,
      "छोड़ा": 8118,
      "रखती": 8119,
      "गहरे": 8120,
      "खुलकर": 8121,
      "बल्स": 8122,
      "मार्केट": 8123,
      "टोरल": 8124,
      "डुगु": 8125,
      "बैठने": 8126,
      "कोशिशों": 8127,
      "गठित": 8128,
      "चलाते": 8129,
      "स्वीकार्य": 8130,
      "लड़के": 8131,
      "लालकुआँ": 8132,
      "मंडी": 8133,
      "दायरे": 8134,
      "स्थलरुप": 8135,
      "प्रोड्यू": 8136,
      "कूरु": 8137,
      "फैली": 8138,
      "चंद्रमा": 8139,
      "1957": 8140,
      "तस्वीरों": 8141,
      "दोषियों": 8142,
      "२००६": 8143,
      "सेवाओं": 8144,
      "करिश्": 8145,
      "व्यापारिक": 8146,
      "संभाला": 8147,
      "उ०प०": 8148,
      "उपायों": 8149,
      "परिणामों": 8150,
      "अर्धशतक": 8151,
      "बन्ध": 8152,
      "मुक़दमे": 8153,
      "इलेक्टोरल": 8154,
      "जालंधर": 8155,
      "चट्टानों": 8156,
      "इंजीनियर": 8157,
      "मृतकों": 8158,
      "हेलिकॉप्टर": 8159,
      "कमिश्": 8160,
      "हंगामा": 8161,
      "तड़के": 8162,
      "अरुणाचल": 8163,
      "कैप्टन": 8164,
      "विद्युत": 8165,
      "विपरीत": 8166,
      "प्रवीण": 8167,
      "09": 8168,
      "66": 8169,
      "अमी": 8170,
      "आकाश": 8171,
      "आदोनि": 8172,
      "ईसा": 8173,
      "ईसाई": 8174,
      "उतरा": 8175,
      "ऋतिक": 8176,
      "ओझा": 8177,
      "गॉ": 8178,
      "डबल्स": 8179,
      "दशा": 8180,
      "दारा": 8181,
      "नकार": 8182,
      "फ्रे": 8183,
      "मचा": 8184,
      "केंड": 8185,
      "रासु": 8186,
      "रावत": 8187,
      "्तन": 8188,
      "याता": 8189,
      "नाच": 8190,
      "प्रशि": 8191,
      "ताकत": 8192,
      "वांग": 8193,
      "हांग": 8194,
      "बां": 8195,
      "बाप": 8196,
      "सीनेट": 8197,
      "साइट": 8198,
      "लीजिए": 8199,
      "विया": 8200,
      "जादू": 8201,
      "निलंबित": 8202,
      "निफ़्टी": 8203,
      "भीम": 8204,
      "मुं": 8205,
      "मुकेश": 8206,
      "भाविक": 8207,
      "बिल्ड": 8208,
      "हार्": 8209,
      "रियो": 8210,
      "हमसे": 8211,
      "मैकेन": 8212,
      "टीना": 8213,
      "शासित": 8214,
      "कहेंगे": 8215,
      "चुनी": 8216,
      "पहलू": 8217,
      "पिंकी": 8218,
      "मानती": 8219,
      "क्रै": 8220,
      "रूर": 8221,
      "्रास": 8222,
      "लगाम": 8223,
      "आईटी": 8224,
      "सबके": 8225,
      "बैंड": 8226,
      "बताएँ": 8227,
      "बोल्ड": 8228,
      "सेनाओं": 8229,
      "शीट": 8230,
      "चौंका": 8231,
      "दरभ": 8232,
      "दरों": 8233,
      "स्ताना": 8234,
      "फ़ैक्ट": 8235,
      "भरने": 8236,
      "भरतपुर": 8237,
      "नागरी": 8238,
      "प्पू": 8239,
      "ग्बी": 8240,
      "बर्दाश्त": 8241,
      "घोषणापत्र": 8242,
      "खोलने": 8243,
      "पूर्ति": 8244,
      "रॉक": 8245,
      "मरण": 8246,
      "अवॉर्ड": 8247,
      "प्रेमी": 8248,
      "खिड़": 8249,
      "अर्जे": 8250,
      "इत्या": 8251,
      "चिंताजनक": 8252,
      "आँकड़ा": 8253,
      "कनॉट": 8254,
      "1967": 8255,
      "सोचता": 8256,
      "ट्ल": 8257,
      "तलाशी": 8258,
      "कठोर": 8259,
      "उ०त": 8260,
      "उठे": 8261,
      "उतरने": 8262,
      "अक्षर": 8263,
      "शोधकर्ताओं": 8264,
      "भैंसा": 8265,
      "नॉर्थ": 8266,
      "सौंपी": 8267,
      "फेंक": 8268,
      "घटाने": 8269,
      "उलट": 8270,
      "आंकड़े": 8271,
      "आंकड़ों": 8272,
      "स्टिवल": 8273,
      "मेट्रोपॉलिटन": 8274,
      "संक्रमण": 8275,
      "बुनियादी": 8276,
      "ईमानदारी": 8277,
      "पृष्ठभूमि": 8278,
      "चटर्जी": 8279,
      "ब्रिगेडियर": 8280,
      "मुकदमा": 8281,
      "प्रचंड": 8282,
      "पत्थरों": 8283,
      "द०मौ": 8284,
      "पू०मनि": 8285,
      "51": 8286,
      "72": 8287,
      "oo": 8288,
      "ال": 8289,
      "अकाली": 8290,
      "इश्": 8291,
      "ईस्ट": 8292,
      "खदे": 8293,
      "घ्न": 8294,
      "तमी": 8295,
      "नन्": 8296,
      "नंद": 8297,
      "नडाल": 8298,
      "बलू": 8299,
      "बगल": 8300,
      "भक्त": 8301,
      "लभ": 8302,
      "व्र": 8303,
      "शह": 8304,
      "सहारे": 8305,
      "हनी": 8306,
      "हमास": 8307,
      "ूहिक": 8308,
      "राउंड": 8309,
      "एकता": 8310,
      "एक्टर": 8311,
      "सेक्टर": 8312,
      "प्रकट": 8313,
      "वाक": 8314,
      "मासिक": 8315,
      "बालू": 8316,
      "राजनेताओं": 8317,
      "लिमि": 8318,
      "विल": 8319,
      "निकाले": 8320,
      "दिक": 8321,
      "मिसाल": 8322,
      "बीडीआर": 8323,
      "क़ुर": 8324,
      "चाइ": 8325,
      "उत्तरपश्चिम": 8326,
      "रेत": 8327,
      "रेशन": 8328,
      "जीने": 8329,
      "पुख़्ता": 8330,
      "मानें": 8331,
      "मंत्रीमंडल": 8332,
      "सैयद": 8333,
      "सबकी": 8334,
      "लियां": 8335,
      "पतियों": 8336,
      "बोझ": 8337,
      "शेट्टी": 8338,
      "कैटिच": 8339,
      "वनस्पति": 8340,
      "वैन": 8341,
      "सामूहिक": 8342,
      "केंद्रित": 8343,
      "सर्जन": 8344,
      "कराना": 8345,
      "एमएल": 8346,
      "वलपमेंट": 8347,
      "ट्रल": 8348,
      "कलाँ": 8349,
      "चोड": 8350,
      "बढ़ाना": 8351,
      "बनेगा": 8352,
      "असरगंज": 8353,
      "धुंध": 8354,
      "एफ़बीआई": 8355,
      "1966": 8356,
      "1968": 8357,
      "शिवशंकर": 8358,
      "हल्लि": 8359,
      "नियंत्रित": 8360,
      "मनाने": 8361,
      "1959": 8362,
      "क्राइस": 8363,
      "हितों": 8364,
      "संभाल": 8365,
      "उतारा": 8366,
      "ब्रेक": 8367,
      "मलेशिया": 8368,
      "ब्लॉग": 8369,
      "वनेल": 8370,
      "लश्करे": 8371,
      "ल०व०": 8372,
      "हेलमंद": 8373,
      "आयुर्": 8374,
      "स्पिनर": 8375,
      "विभाजन": 8376,
      "गोल्डन": 8377,
      "रादरी": 8378,
      "सशस्त्र": 8379,
      "श्वेत": 8380,
      "स्क्रीन": 8381,
      "बुजुर्ग": 8382,
      "आमंत्रित": 8383,
      "रासुका": 8384,
      "दरभंगा": 8385,
      "68": 8386,
      "अन्": 8387,
      "आएँगे": 8388,
      "आखिर": 8389,
      "इक़": 8390,
      "उबार": 8391,
      "ऐश्व": 8392,
      "कमे": 8393,
      "गद्य": 8394,
      "घटक": 8395,
      "छत्र": 8396,
      "ज्या": 8397,
      "ढि": 8398,
      "तस्": 8399,
      "धनी": 8400,
      "बॊ": 8401,
      "ब्य": 8402,
      "भवी": 8403,
      "मनेर": 8404,
      "यदे": 8405,
      "रक़": 8406,
      "रणा": 8407,
      "रग्बी": 8408,
      "हपुर": 8409,
      "ॉप": 8410,
      "कात": 8411,
      "कामा": 8412,
      "गानों": 8413,
      "नागा": 8414,
      "ताई": 8415,
      "तालि": 8416,
      "माली": 8417,
      "सीखा": 8418,
      "न्ट": 8419,
      "साल्": 8420,
      "साउथ": 8421,
      "फ़र्क": 8422,
      "विदा": 8423,
      "विक्रम": 8424,
      "विवादा": 8425,
      "कुरा": 8426,
      "दीवाली": 8427,
      "संयम": 8428,
      "संदीप": 8429,
      "बिलास": 8430,
      "बिरादरी": 8431,
      "तोप": 8432,
      "मैकुलम": 8433,
      "चांद": 8434,
      "पहचा": 8435,
      "पियंस": 8436,
      "म्म": 8437,
      "थेन": 8438,
      "जोधपुर": 8439,
      "क्रू": 8440,
      "शिप": 8441,
      "निर्मल": 8442,
      "गुस्सा": 8443,
      "बैर": 8444,
      "मनसूर": 8445,
      "सिंघ": 8446,
      "धातु": 8447,
      "मामूली": 8448,
      "पोर": 8449,
      "डेन": 8450,
      "जूते": 8451,
      "उपयुक्त": 8452,
      "डिग्री": 8453,
      "डिगोंड": 8454,
      "ज़रलैंड": 8455,
      "स्वाय": 8456,
      "नगरों": 8457,
      "युक्ति": 8458,
      "प्वाइंट": 8459,
      "अंसारी": 8460,
      "लुभा": 8461,
      "जिनसे": 8462,
      "पल्ला": 8463,
      "देवनागरी": 8464,
      "अवश्य": 8465,
      "इरादा": 8466,
      "मौजूदगी": 8467,
      "मलबे": 8468,
      "रंगी": 8469,
      "बमबारी": 8470,
      "माइक": 8471,
      "हटाया": 8472,
      "निशाने": 8473,
      "लिखते": 8474,
      "नवाब": 8475,
      "टिप्पण": 8476,
      "पूछने": 8477,
      "अनिश्चित": 8478,
      "अथॉ": 8479,
      "फ़्रांसीसी": 8480,
      "नेरडिगोंड": 8481,
      "न्टीना": 8482,
      "विश्लेषण": 8483,
      "गाव‌": 8484,
      "अधीक्षक": 8485,
      "तेलुगू": 8486,
      "ट्रैफ़िक": 8487,
      "डैनी": 8488,
      "अग्रवाल": 8489,
      "क़ब्ज़े": 8490,
      "अल्पसंख्यकों": 8491,
      "सिंधिया": 8492,
      "जेटली": 8493,
      "तालाब": 8494,
      "कुरुक्षेत्र": 8495,
      "प्रस्तुत": 8496,
      "ब्रैड": 8497,
      "अभिनेत्रियों": 8498,
      "प्रौद्योगिकी": 8499,
      "पश्चात": 8500,
      "दहेगाव‌": 8501,
      "कमिश्नर": 8502,
      "यातायात": 8503,
      "अर्जेन्टीना": 8504,
      "इत्यादि": 8505,
      "विवादास्पद": 8506,
      "iv": 8507,
      "अमे": 8508,
      "अंद": 8509,
      "अजी": 8510,
      "अफ़ी": 8511,
      "आश्व": 8512,
      "एसि": 8513,
      "एडि": 8514,
      "खत्म": 8515,
      "चढ़ाई": 8516,
      "डम": 8517,
      "डूब": 8518,
      "नहा": 8519,
      "पंत": 8520,
      "बजाए": 8521,
      "यकीन": 8522,
      "शियों": 8523,
      "सफ़े": 8524,
      "ॆड्डि": 8525,
      "४५": 8526,
      "राडी": 8527,
      "एकत्र": 8528,
      "एकदिवसीय": 8529,
      "स्वर्ण": 8530,
      "माइड": 8531,
      "हाव": 8532,
      "करू": 8533,
      "करूँ": 8534,
      "राजनैतिक": 8535,
      "फ़न": 8536,
      "लिश": 8537,
      "लीस": 8538,
      "विवरण": 8539,
      "निरी": 8540,
      "निपटा": 8541,
      "कुश": 8542,
      "तिर्या": 8543,
      "दानी": 8544,
      "हारने": 8545,
      "बीजिंग": 8546,
      "सरु": 8547,
      "पहना": 8548,
      "मोन": 8549,
      "बेड": 8550,
      "बेन्": 8551,
      "बेरोज़गार": 8552,
      "जोड़ा": 8553,
      "सुप्रसिद्ध": 8554,
      "गीलानी": 8555,
      "इनसे": 8556,
      "वोटरों": 8557,
      "टाँ": 8558,
      "शिष्ट": 8559,
      "दूँ": 8560,
      "दूध": 8561,
      "ष्ण": 8562,
      "भाषाओं": 8563,
      "रुचि": 8564,
      "रुवु": 8565,
      "सबकुछ": 8566,
      "गुज़": 8567,
      "ंगाई": 8568,
      "बैग": 8569,
      "अनुवाद": 8570,
      "अनुभवी": 8571,
      "घाटन": 8572,
      "छाई": 8573,
      "भागने": 8574,
      "यूनी": 8575,
      "दिलाई": 8576,
      "ंपल्लॆ": 8577,
      "गिब्स": 8578,
      "जीतना": 8579,
      "न्नॆ": 8580,
      "आग्रह": 8581,
      "सांता": 8582,
      "शुल्क": 8583,
      "पदों": 8584,
      "नाथपुर": 8585,
      "अवगत": 8586,
      "प्रेमियों": 8587,
      "वित्तमंत्री": 8588,
      "दायरा": 8589,
      "फ़ोटो": 8590,
      "सोमनाथ": 8591,
      "ट्रेनिंग": 8592,
      "फ्फर": 8593,
      "चलेगा": 8594,
      "1952": 8595,
      "काउण्टी": 8596,
      "70px": 8597,
      "इच्चोड": 8598,
      "जौहर": 8599,
      "बाईं": 8600,
      "दलितों": 8601,
      "जमकर": 8602,
      "आख़िरकार": 8603,
      "प्रशंसा": 8604,
      "संरक्षित": 8605,
      "गोपालस्वामी": 8606,
      "आरपीएफ़": 8607,
      "हादसे": 8608,
      "प्रतापगढ़": 8609,
      "बड़हिया": 8610,
      "एक्शन": 8611,
      "जरूर": 8612,
      "मेकअप": 8613,
      "जदयू": 8614,
      "अटलांटिक": 8615,
      "ओपेक": 8616,
      "क्राइसलर": 8617,
      "मनसूरचक": 8618,
      "अथॉरिटी": 8619,
      "तिर्यानि": 8620,
      "08": 8621,
      "57": 8622,
      "74": 8623,
      "78": 8624,
      "अलब": 8625,
      "ईसाइ": 8626,
      "ऑस्ट्रिया": 8627,
      "ओटिस": 8628,
      "कटि": 8629,
      "खप": 8630,
      "खर्": 8631,
      "गरा": 8632,
      "गड़ा": 8633,
      "गश्त": 8634,
      "छौरा": 8635,
      "झुक": 8636,
      "डवलपमेंट": 8637,
      "नंदा": 8638,
      "पवन": 8639,
      "बलि": 8640,
      "म्र": 8641,
      "मधुर": 8642,
      "लघु": 8643,
      "वसू": 8644,
      "षी": 8645,
      "५००": 8646,
      "कालि": 8647,
      "कानेर": 8648,
      "लेश": 8649,
      "नायर": 8650,
      "स्ख": 8651,
      "स्केट": 8652,
      "स्क्रि": 8653,
      "बाएँ": 8654,
      "राजपू": 8655,
      "ण्डी": 8656,
      "नीदरलैंड": 8657,
      "साक्षा": 8658,
      "ज़ै": 8659,
      "फ़र्ना": 8660,
      "ल्लू": 8661,
      "क्वे": 8662,
      "ुरु": 8663,
      "कुभीर": 8664,
      "मिलिक": 8665,
      "मियाँ": 8666,
      "संधि": 8667,
      "बिक": 8668,
      "बिंदु": 8669,
      "थाइल": 8670,
      "दाँ": 8671,
      "मेहरा": 8672,
      "रोशनी": 8673,
      "पुरात": 8674,
      "पिट": 8675,
      "मानसून": 8676,
      "मारिया": 8677,
      "टेलि": 8678,
      "चार्य": 8679,
      "चीजें": 8680,
      "सूचित": 8681,
      "गुज़ार": 8682,
      "ंगाना": 8683,
      "पेड़ों": 8684,
      "पंच": 8685,
      "द्रमुक": 8686,
      "जेब": 8687,
      "पैरा": 8688,
      "कैसी": 8689,
      "डेल": 8690,
      "चौकों": 8691,
      "टिका": 8692,
      "महज़": 8693,
      "भूकम्प": 8694,
      "दर्रा": 8695,
      "गिनी": 8696,
      "भावुक": 8697,
      "जयवर्ध": 8698,
      "स्वाभाविक": 8699,
      "कॉमेडी": 8700,
      "टोर": 8701,
      "अपनाया": 8702,
      "अंपायर": 8703,
      "लुस्को": 8704,
      "पाँचवें": 8705,
      "कन्या": 8706,
      "बर्लुस्को": 8707,
      "यानुसार": 8708,
      "ंकिडि": 8709,
      "रतन": 8710,
      "ग्रन्थ": 8711,
      "बराबरी": 8712,
      "साबरी": 8713,
      "प्रेरणा": 8714,
      "ब्रांड": 8715,
      "सुनते": 8716,
      "ध्याय": 8717,
      "ट्टे": 8718,
      "समस्याएँ": 8719,
      "आनन्द": 8720,
      "वृत्त": 8721,
      "अफ्री": 8722,
      "जहाज": 8723,
      "तेलंगाना": 8724,
      "जोड़कर": 8725,
      "नारायणपुर": 8726,
      "ज्यादातर": 8727,
      "निभाने": 8728,
      "क्लोरो": 8729,
      "प्लेट": 8730,
      "कस्बे": 8731,
      "पुनर्निर्माण": 8732,
      "इलेक्ट्रॉ": 8733,
      "उदयपुर": 8734,
      "क्लार्क": 8735,
      "फ़ौज": 8736,
      "मसाला": 8737,
      "आचार्य": 8738,
      "मशीन": 8739,
      "टकराव": 8740,
      "चार्जशीट": 8741,
      "तिब्बती": 8742,
      "फ़ेडरल": 8743,
      "नेटवर्क": 8744,
      "अटकलें": 8745,
      "हांगकांग": 8746,
      "क़ुरैशी": 8747,
      "अफ़ीम": 8748,
      "सफ़ेद": 8749,
      "छौराही": 8750,
      "जयवर्धने": 8751,
      "बर्लुस्कोनी": 8752,
      "64": 8753,
      "ay": 8754,
      "im": 8755,
      "अखा": 8756,
      "अज्ञात": 8757,
      "अग्नि": 8758,
      "आपूर्ति": 8759,
      "ईश्वर": 8760,
      "कटा": 8761,
      "कौर": 8762,
      "च्य": 8763,
      "ज्व": 8764,
      "डरा": 8765,
      "तबा": 8766,
      "दॊ": 8767,
      "पना": 8768,
      "फोर": 8769,
      "बड": 8770,
      "वण": 8771,
      "शनों": 8772,
      "ेन": 8773,
      "्त्र": 8774,
      "गाल": 8775,
      "सेम": 8776,
      "सेफ़": 8777,
      "स्ना": 8778,
      "वाट": 8779,
      "राजकोट": 8780,
      "न्नी": 8781,
      "अनू": 8782,
      "अनदेखी": 8783,
      "नीत": 8784,
      "क्वी": 8785,
      "पाठी": 8786,
      "होश": 8787,
      "मुजा": 8788,
      "ंगरी": 8789,
      "तेरे": 8790,
      "दीक्षित": 8791,
      "मिशेल": 8792,
      "संजीव": 8793,
      "समयानुसार": 8794,
      "बीन": 8795,
      "बीजू": 8796,
      "बीकानेर": 8797,
      "उनपर": 8798,
      "मैसूर": 8799,
      "रोना": 8800,
      "रोमन": 8801,
      "पूंजी": 8802,
      "पहने": 8803,
      "ध्रु": 8804,
      "बेट": 8805,
      "टेट्रा": 8806,
      "मुखिया": 8807,
      "षाण": 8808,
      "चिन": 8809,
      "चिल्ला": 8810,
      "दूसरों": 8811,
      "बरू": 8812,
      "बर्ता": 8813,
      "दुकानों": 8814,
      "सैफ़": 8815,
      "कमज़ो": 8816,
      "बताए": 8817,
      "बताना": 8818,
      "लैण्ड": 8819,
      "परिचय": 8820,
      "परिवहन": 8821,
      "कैलाश": 8822,
      "डेनि": 8823,
      "ब्रू": 8824,
      "अरवि": 8825,
      "सलवा": 8826,
      "विश्वकप": 8827,
      "कॉर्": 8828,
      "लुध": 8829,
      "खंडूरी": 8830,
      "सकेगी": 8831,
      "दिखाए": 8832,
      "आयात": 8833,
      "प्रभावशाली": 8834,
      "पकड़े": 8835,
      "फ़ोर्निया": 8836,
      "उट्न": 8837,
      "ढाँ": 8838,
      "गौरी": 8839,
      "क़दमों": 8840,
      "चिंताओं": 8841,
      "मुश्किलें": 8842,
      "लिंगटन": 8843,
      "शिवसेना": 8844,
      "पड़ेगी": 8845,
      "मोहम्मदपुर": 8846,
      "टाइगर": 8847,
      "त्रिपाठी": 8848,
      "मनोज": 8849,
      "हरियाली": 8850,
      "तैनाती": 8851,
      "नामांकित": 8852,
      "मुनाफ़": 8853,
      "फुटबॉल": 8854,
      "ब्रेट": 8855,
      "चिकित्": 8856,
      "घटकर": 8857,
      "हस्तक्षेप": 8858,
      "बढ़ोतरी": 8859,
      "हाइड्रो": 8860,
      "गणितज्ञ": 8861,
      "बार्नेट": 8862,
      "संक्रमित": 8863,
      "ढेर": 8864,
      "ढूँढ": 8865,
      "ज्यूली": 8866,
      "सार्कोज़ी": 8867,
      "घोटाले": 8868,
      "रक़म": 8869,
      "बिलासपुर": 8870,
      "आश्वस्त": 8871,
      "ईसाइयों": 8872,
      "कुभीर‌": 8873,
      "बर्ताव": 8874,
      "उट्नूरु": 8875,
      "est": 8876,
      "for": 8877,
      "la": 8878,
      "अटल": 8879,
      "आश्रम": 8880,
      "उग्र": 8881,
      "एन्": 8882,
      "कंग": 8883,
      "कम्": 8884,
      "कवरे": 8885,
      "धै": 8886,
      "न्य": 8887,
      "नमा": 8888,
      "फ्यू": 8889,
      "बगड": 8890,
      "यश": 8891,
      "रंगा": 8892,
      "वू": 8893,
      "हृ": 8894,
      "िष्क": 8895,
      "ोम": 8896,
      "८०": 8897,
      "किसान": 8898,
      "नाश": 8899,
      "स्पा": 8900,
      "स्पेश": 8901,
      "स्कू": 8902,
      "स्मृ": 8903,
      "प्रमाण": 8904,
      "वांकिडि": 8905,
      "राजपुर": 8906,
      "राजशाही": 8907,
      "फ़ारू": 8908,
      "लीला": 8909,
      "विजन": 8910,
      "विरू": 8911,
      "विदेशों": 8912,
      "विरासत": 8913,
      "इसरो": 8914,
      "होत्रा": 8915,
      "मुल्ला": 8916,
      "तेरा": 8917,
      "समन्": 8918,
      "समपत": 8919,
      "क़रीबी": 8920,
      "तोला": 8921,
      "मैडॉ": 8922,
      "टीय": 8923,
      "वेट": 8924,
      "मोटी": 8925,
      "पारसी": 8926,
      "चिन्ह": 8927,
      "ष्म": 8928,
      "रुद्र": 8929,
      "सबका": 8930,
      "सबर्ग": 8931,
      "गोप": 8932,
      "गोले": 8933,
      "पेन्": 8934,
      "यमित": 8935,
      "अनुराग": 8936,
      "बोध": 8937,
      "छाती": 8938,
      "चलकर": 8939,
      "चौडा": 8940,
      "उपराष्ट्रपति": 8941,
      "उपभो": 8942,
      "प्राणी": 8943,
      "जुर्": 8944,
      "दरबार": 8945,
      "मुख्यतः": 8946,
      "ज़िल": 8947,
      "भरते": 8948,
      "तुष": 8949,
      "सर्च": 8950,
      "कडें": 8951,
      "बर्न": 8952,
      "महिंदा": 8953,
      "आरंभ": 8954,
      "हाथियों": 8955,
      "एनए": 8956,
      "बसों": 8957,
      "भूमिगत": 8958,
      "कपड़ा": 8959,
      "फोन": 8960,
      "15वीं": 8961,
      "छोड़ना": 8962,
      "प्रोग्राम": 8963,
      "दुर्लभ": 8964,
      "तरीक़ा": 8965,
      "परेड": 8966,
      "इस्लामिक": 8967,
      "पाएगी": 8968,
      "पाएंगे": 8969,
      "नवनिर्वाचित": 8970,
      "1955": 8971,
      "सर्वदलीय": 8972,
      "एयरलाइंस": 8973,
      "अनियमित": 8974,
      "खानापूर": 8975,
      "शूट": 8976,
      "तोड़फोड़": 8977,
      "चूक": 8978,
      "किताबें": 8979,
      "समाप्ति": 8980,
      "नीलाम": 8981,
      "जमशे": 8982,
      "प्रत्याशियों": 8983,
      "ग्वालियर": 8984,
      "फ़ॉर्म": 8985,
      "काटता": 8986,
      "परंपरागत": 8987,
      "ग़ुस्सा": 8988,
      "हसनपुर": 8989,
      "आरोहण": 8990,
      "चट्टान": 8991,
      "अंधे": 8992,
      "गोविंद": 8993,
      "ड्रॉ": 8994,
      "स्विट्": 8995,
      "हबीब": 8996,
      "सावधानी": 8997,
      "मेज़बान": 8998,
      "सेवक": 8999,
      "शत्रुघ्न": 9000,
      "मुज़फ़्": 9001,
      "मन्त्री": 9002,
      "मस्तिष्क": 9003,
      "अर्थात": 9004,
      "अतीत": 9005,
      "सिंगापुर": 9006,
      "चाहूँगा": 9007,
      "कूटनीतिक": 9008,
      "खदेड़": 9009,
      "उबारने": 9010,
      "ऐश्वर्या": 9011,
      "वसूली": 9012,
      "स्क्रिप्ट": 9013,
      "समपतचक": 9014,
      "मैडॉफ़": 9015,
      "250": 9016,
      "84": 9017,
      "fi": 9018,
      "id": 9019,
      "ँध": 9020,
      "ंघ": 9021,
      "आति": 9022,
      "इब्रा": 9023,
      "उर": 9024,
      "एल्": 9025,
      "गना": 9026,
      "चिक": 9027,
      "छँट": 9028,
      "जन्न": 9029,
      "झि": 9030,
      "ठंड": 9031,
      "तं": 9032,
      "तले": 9033,
      "तटीय": 9034,
      "दंगे": 9035,
      "दबद": 9036,
      "धों": 9037,
      "पन्": 9038,
      "पद्ध": 9039,
      "बहर": 9040,
      "भक्ति": 9041,
      "मरु": 9042,
      "मकानों": 9043,
      "यक़ी": 9044,
      "रचा": 9045,
      "लह": 9046,
      "लयों": 9047,
      "शकर": 9048,
      "शर्म": 9049,
      "षे": 9050,
      "सलों": 9051,
      "ीकरण": 9052,
      "ौना": 9053,
      "२१": 9054,
      "२९": 9055,
      "नेडि": 9056,
      "र्डिंग": 9057,
      "सेस": 9058,
      "सेल्": 9059,
      "सेवन": 9060,
      "कोय": 9061,
      "प्रिया": 9062,
      "प्रज्ञा": 9063,
      "प्रार्थ": 9064,
      "लाव": 9065,
      "लाकर": 9066,
      "बाजौ": 9067,
      "राजनय": 9068,
      "देवन": 9069,
      "सीआरपीएफ़": 9070,
      "साना": 9071,
      "परम्प": 9072,
      "फ़ज़ा": 9073,
      "लीय": 9074,
      "क्वि": 9075,
      "निज़ा": 9076,
      "पाषाण": 9077,
      "मुर्": 9078,
      "मुक्ति": 9079,
      "क्ष्": 9080,
      "ढ़ियों": 9081,
      "मिनियम": 9082,
      "संसार": 9083,
      "संरचना": 9084,
      "संसाधनों": 9085,
      "पुर्त": 9086,
      "प्रदेशों": 9087,
      "सिपा": 9088,
      "दायों": 9089,
      "दाढ़ी": 9090,
      "क़ु": 9091,
      "तोल": 9092,
      "टीज़": 9093,
      "शाका": 9094,
      "रोशन": 9095,
      "रेणु": 9096,
      "ष्ट्": 9097,
      "पारि": 9098,
      "पीडीपी": 9099,
      "1950": 9100,
      "गरम": 9101,
      "चिट": 9102,
      "बरस": 9103,
      "वर्ड": 9104,
      "ंधन": 9105,
      "सबुक": 9106,
      "तालं": 9107,
      "ब्बत": 9108,
      "धाम": 9109,
      "लैस": 9110,
      "पोप": 9111,
      "यूरो": 9112,
      "ख़ालि": 9113,
      "ज़िद": 9114,
      "वैशाली": 9115,
      "र्डर": 9116,
      "दक्षिणपंथी": 9117,
      "हेड": 9118,
      "अगला": 9119,
      "नज़रबंद": 9120,
      "स्वीडन": 9121,
      "लेखन": 9122,
      "लड़ना": 9123,
      "बदरी": 9124,
      "नाथन": 9125,
      "मध्यप्रदेश": 9126,
      "अध्यक्षता": 9127,
      "बैंकॉक": 9128,
      "एंटी": 9129,
      "प्रोत्सा": 9130,
      "मलबा": 9131,
      "मूल्यों": 9132,
      "फ़्लिंट": 9133,
      "हल्की": 9134,
      "माइक्रो": 9135,
      "आलोचक": 9136,
      "अमेरिकन": 9137,
      "जगन्": 9138,
      "तनावपूर्ण": 9139,
      "सिटीग्रुप": 9140,
      "मल्होत्रा": 9141,
      "ग्रेट": 9142,
      "मनोबल": 9143,
      "उन्होने": 9144,
      "वस्तुएँ": 9145,
      "ation": 9146,
      "मलावी": 9147,
      "फ़ॉर": 9148,
      "फैलने": 9149,
      "सॉफ्ट": 9150,
      "कागज्": 9151,
      "गड़बड़ी": 9152,
      "कट्टरपंथी": 9153,
      "वृक्षों": 9154,
      "रसूलपुर": 9155,
      "रत्ना": 9156,
      "मालिकों": 9157,
      "काठमांडू": 9158,
      "मुहाफ़ज़ा": 9159,
      "चैम्पियन": 9160,
      "व्यावसायिक": 9161,
      "पर्वतारोही": 9162,
      "अन्तर्राष्ट्रीय": 9163,
      "ज्वालामुखी": 9164,
      "लुत्फ़": 9165,
      "गिरफ्तार": 9166,
      "बलूचिस्तान": 9167,
      "लिमिटेड": 9168,
      "तालिबान": 9169,
      "साक्षात्कार": 9170,
      "स्पेशल": 9171,
      "बाजौड़": 9172,
      "राजनयिक": 9173,
      "प्रोत्साहन": 9174,
      "मुहाफ़ज़ाह": 9175,
      "St": 9176,
      "ot": 9177,
      "ph": 9178,
      "um": 9179,
      "ان": 9180,
      "अन्न": 9181,
      "आकृति": 9182,
      "आत्मक": 9183,
      "इल्": 9184,
      "ईंधन": 9185,
      "उंडे": 9186,
      "ऐलान": 9187,
      "कसर": 9188,
      "क्यो": 9189,
      "तंग": 9190,
      "दंप": 9191,
      "पच": 9192,
      "पप्पू": 9193,
      "फार्": 9194,
      "बची": 9195,
      "भवानी": 9196,
      "मड": 9197,
      "रमेश": 9198,
      "लड़े": 9199,
      "शही": 9200,
      "सस्ते": 9201,
      "ेय": 9202,
      "राधा": 9203,
      "नेल": 9204,
      "नेस्टी": 9205,
      "नाइल": 9206,
      "कोली": 9207,
      "ताल्लु": 9208,
      "लाड": 9209,
      "माइल": 9210,
      "हाफ़ि": 9211,
      "जिल": 9212,
      "परो": 9213,
      "फ़्रे": 9214,
      "फ़ोर": 9215,
      "ल्टी": 9216,
      "विरा": 9217,
      "विक्": 9218,
      "पायी": 9219,
      "दिन्नॆ": 9220,
      "होल": 9221,
      "मुम्": 9222,
      "कुट": 9223,
      "कुंभ": 9224,
      "भास": 9225,
      "दीं": 9226,
      "मिठा": 9227,
      "हार्ट": 9228,
      "स्तों": 9229,
      "रिटर्": 9230,
      "ंड्ल": 9231,
      "अपमान": 9232,
      "वेने": 9233,
      "वेत्ता": 9234,
      "पहलुओं": 9235,
      "्रेट": 9236,
      "मोटे": 9237,
      "जोग": 9238,
      "190": 9239,
      "शिता": 9240,
      "चारा": 9241,
      "च्छा": 9242,
      "गढपुरा": 9243,
      "गुंजा": 9244,
      "पेन": 9245,
      "लंबाई": 9246,
      "देखभाल": 9247,
      "बढ़ना": 9248,
      "जूनियर": 9249,
      "डिन": 9250,
      "दरार": 9251,
      "वंशी": 9252,
      "पत्रों": 9253,
      "छोड़ी": 9254,
      "सलर": 9255,
      "महाविद्यालय": 9256,
      "एमनेस्टी": 9257,
      "शुनपुर": 9258,
      "शुक्ला": 9259,
      "कोटपल्लि": 9260,
      "शोप": 9261,
      "शोषण": 9262,
      "स्टेशनों": 9263,
      "पुराण": 9264,
      "माँगी": 9265,
      "गठजोड़": 9266,
      "ट्रकों": 9267,
      "शासनकाल": 9268,
      "पड़ाव": 9269,
      "लड़ाके": 9270,
      "फाँसी": 9271,
      "उदघाटन": 9272,
      "व्यास": 9273,
      "धोल": 9274,
      "ड्डा": 9275,
      "मज़दूरी": 9276,
      "धर्मशाला": 9277,
      "सेंट्रल": 9278,
      "गर्भ": 9279,
      "पार्श्व": 9280,
      "आदिवासियों": 9281,
      "लिखता": 9282,
      "सुधारों": 9283,
      "जॉनसन": 9284,
      "त्रिशूल": 9285,
      "सुनाया": 9286,
      "मन्पल्लि": 9287,
      "छुट्ट": 9288,
      "मॉर्": 9289,
      "ंजलि": 9290,
      "नारायणन": 9291,
      "उ०म०": 9292,
      "उपाध्यक्ष": 9293,
      "१९६३": 9294,
      "जौंग": 9295,
      "1947": 9296,
      "शर्तों": 9297,
      "कण्डारस्यूं": 9298,
      "ग्वाड": 9299,
      "कंधमाल": 9300,
      "मजबूत": 9301,
      "शरणार्थी": 9302,
      "मिश्रित": 9303,
      "ढाईज्यूली": 9304,
      "जंक्शन": 9305,
      "किराए": 9306,
      "सिस्टम": 9307,
      "पेशेवर": 9308,
      "फ़ुटबॉल": 9309,
      "नियोजित": 9310,
      "मिल्टन": 9311,
      "शिवाजी": 9312,
      "आमदनी": 9313,
      "साहेबपुर": 9314,
      "मंत्रीमंडलमें": 9315,
      "तस्करी": 9316,
      "लुधियाना": 9317,
      "कवरेज": 9318,
      "उपभोक्ता": 9319,
      "दबदबा": 9320,
      "परम्परा": 9321,
      "कागज्नगर": 9322,
      "आत्मकथा": 9323,
      "56": 9324,
      "os": 9325,
      "ंचे": 9326,
      "असंभव": 9327,
      "आनी": 9328,
      "आड़े": 9329,
      "आक्रम": 9330,
      "उड": 9331,
      "उंग": 9332,
      "उस्ता": 9333,
      "एब": 9334,
      "एरी": 9335,
      "एमे": 9336,
      "कफ": 9337,
      "कवर": 9338,
      "गला": 9339,
      "गंध": 9340,
      "णसी": 9341,
      "धरन": 9342,
      "प्या": 9343,
      "पचम": 9344,
      "बत्त": 9345,
      "महर": 9346,
      "रच": 9347,
      "रमन": 9348,
      "षड": 9349,
      "ष्य": 9350,
      "९०": 9351,
      "राही": 9352,
      "राखी": 9353,
      "र्ज़": 9354,
      "कीपर": 9355,
      "नाका": 9356,
      "सेन्": 9357,
      "सेतु": 9358,
      "सेकेंड": 9359,
      "तालों": 9360,
      "हाउ": 9361,
      "करों": 9362,
      "्डा": 9363,
      "सीता": 9364,
      "सीरियल": 9365,
      "साइन": 9366,
      "साधु": 9367,
      "क्वार": 9368,
      "विशिष्ट": 9369,
      "पाप": 9370,
      "पांड": 9371,
      "पाएँ": 9372,
      "दिखी": 9373,
      "मुस्त": 9374,
      "मुहम्मद": 9375,
      "मुधोल": 9376,
      "भागीर": 9377,
      "दीपुर": 9378,
      "लोम": 9379,
      "स्थितियाँ": 9380,
      "तीखी": 9381,
      "तीव्र": 9382,
      "मिर्जा": 9383,
      "हारपुर": 9384,
      "रिक्": 9385,
      "रियों": 9386,
      "समीप": 9387,
      "बीते": 9388,
      "ंडन": 9389,
      "मैग्": 9390,
      "रोस": 9391,
      "मंशा": 9392,
      "चुप": 9393,
      "गेट्स": 9394,
      "दोस्ताना": 9395,
      "बेला": 9396,
      "हरसंभव": 9397,
      "गीता": 9398,
      "पीपल": 9399,
      "वोटिंग": 9400,
      "टेक": 9401,
      "अमल": 9402,
      "चिल": 9403,
      "चीफ़": 9404,
      "बरसात": 9405,
      "वर्धन": 9406,
      "डाउन": 9407,
      "डांस": 9408,
      "चेस्टर": 9409,
      "गोयल": 9410,
      "मनयारा": 9411,
      "जैपूर": 9412,
      "नैशनल": 9413,
      "रियाल": 9414,
      "पैवेलियन": 9415,
      "श्रीराम": 9416,
      "यूरे": 9417,
      "महंगाई": 9418,
      "भूपति": 9419,
      "दरपुर": 9420,
      "वैसी": 9421,
      "गिन": 9422,
      "कॉफी": 9423,
      "खुसरु": 9424,
      "ग्लाइ": 9425,
      "पश्चिमो": 9426,
      "हेतु": 9427,
      "आरों": 9428,
      "वितरण": 9429,
      "मुद्दीन": 9430,
      "जेंटीना": 9431,
      "पहुँचकर": 9432,
      "मोहनपुर": 9433,
      "सितारे": 9434,
      "सितम्बर": 9435,
      "उत्पन्न": 9436,
      "चोपडा": 9437,
      "टूटने": 9438,
      "व्यापारी": 9439,
      "मार्गों": 9440,
      "अर्जेंटीना": 9441,
      "विद्य": 9442,
      "घुटने": 9443,
      "पर्वतमाला": 9444,
      "1961": 9445,
      "वर्गों": 9446,
      "लगीं": 9447,
      "हल्दू": 9448,
      "ट्रेकिंग": 9449,
      "हटाए": 9450,
      "निकलकर": 9451,
      "गैरह": 9452,
      "चुनौतियों": 9453,
      "1954": 9454,
      "करवाना": 9455,
      "टॉप": 9456,
      "जोड़ने": 9457,
      "सिलसिलेवार": 9458,
      "सिंगुर": 9459,
      "चार्ल्स": 9460,
      "मल्लिका": 9461,
      "ग्रेने": 9462,
      "क्रीड़ा": 9463,
      "हिंदुत्व": 9464,
      "एडम": 9465,
      "वाराणसी": 9466,
      "मुनाफ़े": 9467,
      "1949": 9468,
      "चंद्रा": 9469,
      "दीवारों": 9470,
      "दलील": 9471,
      "ग़ुलाम": 9472,
      "ल०प०": 9473,
      "जुटाने": 9474,
      "जमीन": 9475,
      "टुकड़े": 9476,
      "विवेक": 9477,
      "औऔऔऔऔऔऔऔ": 9478,
      "सुल्तानपुर": 9479,
      "स्पर्धा": 9480,
      "ारुढ़": 9481,
      "प्रतिबद्धता": 9482,
      "इंद्रवेल्लि": 9483,
      "भागीदारी": 9484,
      "बृह": 9485,
      "मुजफ्फर": 9486,
      "प्रोडक्शन": 9487,
      "स्खलन": 9488,
      "इलेक्ट्रॉनिक": 9489,
      "जमशेदपुर": 9490,
      "प्रार्थना": 9491,
      "मुम्बई": 9492,
      "61": 9493,
      "86": 9494,
      "ct": 9495,
      "अख": 9496,
      "अत्या": 9497,
      "आगाह": 9498,
      "इंद": 9499,
      "उपे": 9500,
      "उदार": 9501,
      "एट": 9502,
      "एबी": 9503,
      "ऐंड": 9504,
      "ऑर्": 9505,
      "ऑक्": 9506,
      "ओल": 9507,
      "कसा": 9508,
      "खड": 9509,
      "खतर": 9510,
      "खन्ना": 9511,
      "घी": 9512,
      "ड्रि": 9513,
      "ण्ट": 9514,
      "णिक": 9515,
      "तप": 9516,
      "थै": 9517,
      "दख़": 9518,
      "दनिया": 9519,
      "धक्का": 9520,
      "फ्रेंच": 9521,
      "बक": 9522,
      "बजा": 9523,
      "शकी": 9524,
      "हब": 9525,
      "हैरान": 9526,
      "हैमिल्टन": 9527,
      "राना": 9528,
      "यां": 9529,
      "याल": 9530,
      "स्वाद": 9531,
      "प्रजा": 9532,
      "ताली": 9533,
      "तांसी": 9534,
      "मासू": 9535,
      "सीम": 9536,
      "परवाह": 9537,
      "परंतु": 9538,
      "ज़िक": 9539,
      "फ़र्ड": 9540,
      "फ़ारसी": 9541,
      "विनय": 9542,
      "निकोला": 9543,
      "उत्तम": 9544,
      "पाला": 9545,
      "होम्स": 9546,
      "मुड़": 9547,
      "मुन्ना": 9548,
      "तेजी": 9549,
      "सिग": 9550,
      "दाहि": 9551,
      "दायक": 9552,
      "ंडों": 9553,
      "तोह": 9554,
      "अपॉन": 9555,
      "मैक्": 9556,
      "शाइ": 9557,
      "शाक": 9558,
      "ऊँगा": 9559,
      "कहूँगा": 9560,
      "रोडा": 9561,
      "रेलगा": 9562,
      "रेब्": 9563,
      "जीपी": 9564,
      "म्बा": 9565,
      "स्टिक": 9566,
      "बेस्ट": 9567,
      "टेम्स": 9568,
      "टाना": 9569,
      "आपदा": 9570,
      "ष्ठा": 9571,
      "ंधे": 9572,
      "कृत्रि": 9573,
      "कर्णी": 9574,
      "रूबीना": 9575,
      "पौरा": 9576,
      "2014": 9577,
      "डालें": 9578,
      "रुख": 9579,
      "रुबीना": 9580,
      "व्यंग": 9581,
      "चेल्": 9582,
      "सोचना": 9583,
      "सोशल": 9584,
      "नौगांव": 9585,
      "कमरों": 9586,
      "बैनर": 9587,
      "दर्शिता": 9588,
      "मनु": 9589,
      "जैक": 9590,
      "जेसी": 9591,
      "बोरा": 9592,
      "बुक": 9593,
      "बनवाया": 9594,
      "जानें": 9595,
      "जानती": 9596,
      "गिना": 9597,
      "रखेंगे": 9598,
      "कार्बो": 9599,
      "मद्रास": 9600,
      "विश्वस": 9601,
      "सहज": 9602,
      "ग्न": 9603,
      "दक्षिणपश्चिम": 9604,
      "पड़ते": 9605,
      "समुदायों": 9606,
      "कुलकर्णी": 9607,
      "चलाए": 9608,
      "लड़ेंगे": 9609,
      "बहरीन": 9610,
      "मध्यम": 9611,
      "टूरु": 9612,
      "छिपे": 9613,
      "पेशियों": 9614,
      "चेन्नूर‌": 9615,
      "मुश्किलों": 9616,
      "छात्रा": 9617,
      "सोचने": 9618,
      "फैसला": 9619,
      "वाहक": 9620,
      "ond": 9621,
      "उपलब्धियों": 9622,
      "ant": 9623,
      "विभागों": 9624,
      "आत्मसमर्पण": 9625,
      "न्यायपालिका": 9626,
      "अनिवार": 9627,
      "बेलदौर": 9628,
      "भविष्यवाणी": 9629,
      "दिग्विजय": 9630,
      "हिस्सेदारी": 9631,
      "्रियत": 9632,
      "कांफ्रेंस": 9633,
      "एचओ": 9634,
      "भड़क": 9635,
      "भाषी": 9636,
      "बीरपुर": 9637,
      "सर्वेक्षणों": 9638,
      "पीड़ितों": 9639,
      "अधिनियम": 9640,
      "डब्लू": 9641,
      "पाठक": 9642,
      "त्रासदी": 9643,
      "वाडोर": 9644,
      "चॆरुवु": 9645,
      "हाइड्रा": 9646,
      "फ़लस्तीनियों": 9647,
      "नस्लवादी": 9648,
      "घिरे": 9649,
      "ट्यूट": 9650,
      "सरोवर": 9651,
      "बुनियाद": 9652,
      "छेड़छाड़": 9653,
      "दंते": 9654,
      "क़िस्": 9655,
      "दरियापुर": 9656,
      "झुग्गी": 9657,
      "विद्वान": 9658,
      "हुर्रियत": 9659,
      "हेलीकॉप्टर": 9660,
      "ब्यौरा": 9661,
      "स्वायत्त": 9662,
      "हृदय": 9663,
      "पद्धति": 9664,
      "यक़ीन": 9665,
      "हाफ़िज़": 9666,
      "रिटर्न्स": 9667,
      "पचमढ़ी": 9668,
      "खुसरुपूर": 9669,
      "दनियावान": 9670,
      "कृत्रिम": 9671,
      "73": 9672,
      "ne": 9673,
      "असिस्ट": 9674,
      "अस्थायी": 9675,
      "आसार": 9676,
      "आइड": 9677,
      "इस्ट": 9678,
      "इथि": 9679,
      "एगी": 9680,
      "एएस": 9681,
      "औली": 9682,
      "कली": 9683,
      "ख्त": 9684,
      "गियों": 9685,
      "ग्याल": 9686,
      "चुरी": 9687,
      "जस": 9688,
      "डेंट": 9689,
      "नशी": 9690,
      "फौ": 9691,
      "भैर": 9692,
      "मख": 9693,
      "रड": 9694,
      "रम": 9695,
      "रसो": 9696,
      "लार": 9697,
      "वश": 9698,
      "वसु": 9699,
      "वगैरह": 9700,
      "श्यों": 9701,
      "सदा": 9702,
      "ुन": 9703,
      "केला": 9704,
      "केरी": 9705,
      "काटने": 9706,
      "राघ": 9707,
      "राधी": 9708,
      "रास्तों": 9709,
      "नेह": 9710,
      "नेवा": 9711,
      "नेशन": 9712,
      "कीजिए": 9713,
      "किट": 9714,
      "लेनी": 9715,
      "गाया": 9716,
      "नाट": 9717,
      "कोने": 9718,
      "कोटी": 9719,
      "कोथी": 9720,
      "कोर्स": 9721,
      "हावी": 9722,
      "राजेश": 9723,
      "साहू": 9724,
      "सायन": 9725,
      "ल्‍": 9726,
      "क्ले": 9727,
      "विविध": 9728,
      "जाहिर": 9729,
      "भीमिनि": 9730,
      "देशभर": 9731,
      "मुन": 9732,
      "हिच": 9733,
      "मिड": 9734,
      "पुरम": 9735,
      "थाम": 9736,
      "सियाँ": 9737,
      "दावों": 9738,
      "समृ": 9739,
      "क़ों": 9740,
      "कहानियाँ": 9741,
      "सरल": 9742,
      "चालीस": 9743,
      "कहें": 9744,
      "वेमन्पल्लि": 9745,
      "जीन": 9746,
      "वारिक": 9747,
      "दोहराया": 9748,
      "खाई": 9749,
      "पारो": 9750,
      "मारकर": 9751,
      "पीसीबी": 9752,
      "उसको": 9753,
      "टेक्": 9754,
      "शिर": 9755,
      "शियम": 9756,
      "बरकरार": 9757,
      "वर्च": 9758,
      "लगंज": 9759,
      "गोलिक": 9760,
      "गोधरा": 9761,
      "बहुल": 9762,
      "बताइए": 9763,
      "घास": 9764,
      "बोडो": 9765,
      "संगमर": 9766,
      "बढ़िया": 9767,
      "भागों": 9768,
      "कैलिस": 9769,
      "उपनगर": 9770,
      "ब्रदर": 9771,
      "ब्रैंड": 9772,
      "ज्म": 9773,
      "जानबूझ": 9774,
      "वैकल्प": 9775,
      "गहराई": 9776,
      "कार्यभार": 9777,
      "कार्यरत": 9778,
      "डॉट": 9779,
      "जवाबी": 9780,
      "कॉपी": 9781,
      "खुदा": 9782,
      "प्लस": 9783,
      "सर्दी": 9784,
      "सर्जरी": 9785,
      "समझती": 9786,
      "आएंगे": 9787,
      "गिरकर": 9788,
      "आरोपपत्र": 9789,
      "शुद्ध": 9790,
      "शोएब": 9791,
      "आरआर": 9792,
      "दिखाते": 9793,
      "बॉयल": 9794,
      "बहती": 9795,
      "सितौं": 9796,
      "फोर्ट": 9797,
      "रैन": 9798,
      "रैलियों": 9799,
      "मंडा": 9800,
      "विरोधियों": 9801,
      "वोटों": 9802,
      "फ़ेसबुक": 9803,
      "विमानन": 9804,
      "सलेमपुर": 9805,
      "जताते": 9806,
      "ढाल": 9807,
      "स्थापत्य": 9808,
      "सीमावर्ती": 9809,
      "अर्थव्यवस्थाओं": 9810,
      "भावनाओं": 9811,
      "फेट": 9812,
      "शाहबाज़": 9813,
      "ट्रेनों": 9814,
      "गर्मियों": 9815,
      "नवकोथी": 9816,
      "1951": 9817,
      "1956": 9818,
      "1958": 9819,
      "सुधारने": 9820,
      "दृश्यों": 9821,
      "तानूर‌": 9822,
      "पूछते": 9823,
      "जल्दबाज़ी": 9824,
      "हरिद्वार": 9825,
      "प्रतिबंधों": 9826,
      "ंडेपल्लि": 9827,
      "आवाज़ें": 9828,
      "तारीख": 9829,
      "लौटते": 9830,
      "झुका": 9831,
      "घेरे": 9832,
      "मैनेज": 9833,
      "प्टरों": 9834,
      "हटकर": 9835,
      "पेंटिंग": 9836,
      "कॊत्त": 9837,
      "नरेश": 9838,
      "भौगोलिक": 9839,
      "खोजने": 9840,
      "रिश्तेदार": 9841,
      "आँखें": 9842,
      "फेंकने": 9843,
      "नजदीक": 9844,
      "दुखद": 9845,
      "सिमट": 9846,
      "चढ़ने": 9847,
      "संग्राम": 9848,
      "अकेला": 9849,
      "गीतकार": 9850,
      "पहनने": 9851,
      "प्रतिनिधियों": 9852,
      "घिरा": 9853,
      "सरीना": 9854,
      "मुरलीधरन": 9855,
      "मनीष": 9856,
      "पेट्रोल": 9857,
      "झरना": 9858,
      "प्रजातियों": 9859,
      "सतर्कता": 9860,
      "एहसास": 9861,
      "अनोखा": 9862,
      "टूरिज्म": 9863,
      "सिक्किम": 9864,
      "मछुआरों": 9865,
      "भूगोलवेत्ता": 9866,
      "दीर्घा": 9867,
      "ग्राहकों": 9868,
      "इक़बाल": 9869,
      "अमेठी": 9870,
      "तबाही": 9871,
      "विरूद्ध": 9872,
[...]
